{
  "version": "1.0",
  "truncation": null,
  "padding": null,
  "added_tokens": [
    {
      "id": 0,
      "content": "<pad>",
      "single_word": false,
      "lstrip": false,
      "rstrip": false,
      "normalized": false,
      "special": true
    },
    {
      "id": 1,
      "content": "<bos>",
      "single_word": false,
      "lstrip": false,
      "rstrip": false,
      "normalized": false,
      "special": true
    },
    {
      "id": 2,
      "content": "<eos>",
      "single_word": false,
      "lstrip": false,
      "rstrip": false,
      "normalized": false,
      "special": true
    },
    {
      "id": 3,
      "content": "<unk>",
      "single_word": false,
      "lstrip": false,
      "rstrip": false,
      "normalized": false,
      "special": true
    }
  ],
  "normalizer": {
    "type": "NFC"
  },
  "pre_tokenizer": {
    "type": "ByteLevel",
    "add_prefix_space": false,
    "trim_offsets": true,
    "use_regex": true
  },
  "post_processor": null,
  "decoder": {
    "type": "ByteLevel",
    "add_prefix_space": true,
    "trim_offsets": true,
    "use_regex": true
  },
  "model": {
    "type": "BPE",
    "dropout": null,
    "unk_token": "<unk>",
    "continuing_subword_prefix": null,
    "end_of_word_suffix": null,
    "fuse_unk": false,
    "byte_fallback": false,
    "ignore_merges": false,
    "vocab": {
      "<pad>": 0,
      "<bos>": 1,
      "<eos>": 2,
      "<unk>": 3,
      "!": 4,
      "\"": 5,
      "#": 6,
      "$": 7,
      "%": 8,
      "&": 9,
      "'": 10,
      "(": 11,
      ")": 12,
      "*": 13,
      "+": 14,
      ",": 15,
      "-": 16,
      ".": 17,
      "/": 18,
      "0": 19,
      "1": 20,
      "2": 21,
      "3": 22,
      "4": 23,
      "5": 24,
      "6": 25,
      "7": 26,
      "8": 27,
      "9": 28,
      ":": 29,
      ";": 30,
      "<": 31,
      "=": 32,
      ">": 33,
      "?": 34,
      "@": 35,
      "A": 36,
      "B": 37,
      "C": 38,
      "D": 39,
      "E": 40,
      "F": 41,
      "G": 42,
      "H": 43,
      "I": 44,
      "J": 45,
      "K": 46,
      "L": 47,
      "M": 48,
      "N": 49,
      "O": 50,
      "P": 51,
      "Q": 52,
      "R": 53,
      "S": 54,
      "T": 55,
      "U": 56,
      "V": 57,
      "W": 58,
      "X": 59,
      "Y": 60,
      "Z": 61,
      "[": 62,
      "\\": 63,
      "]": 64,
      "^": 65,
      "_": 66,
      "`": 67,
      "a": 68,
      "b": 69,
      "c": 70,
      "d": 71,
      "e": 72,
      "f": 73,
      "g": 74,
      "h": 75,
      "i": 76,
      "j": 77,
      "k": 78,
      "l": 79,
      "m": 80,
      "n": 81,
      "o": 82,
      "p": 83,
      "q": 84,
      "r": 85,
      "s": 86,
      "t": 87,
      "u": 88,
      "v": 89,
      "w": 90,
      "x": 91,
      "y": 92,
      "z": 93,
      "{": 94,
      "|": 95,
      "}": 96,
      "~": 97,
      "¡": 98,
      "¢": 99,
      "£": 100,
      "¤": 101,
      "¥": 102,
      "¦": 103,
      "§": 104,
      "¨": 105,
      "©": 106,
      "ª": 107,
      "«": 108,
      "¬": 109,
      "®": 110,
      "¯": 111,
      "°": 112,
      "±": 113,
      "²": 114,
      "³": 115,
      "´": 116,
      "µ": 117,
      "¶": 118,
      "·": 119,
      "¸": 120,
      "¹": 121,
      "º": 122,
      "»": 123,
      "¼": 124,
      "½": 125,
      "¾": 126,
      "¿": 127,
      "À": 128,
      "Á": 129,
      "Â": 130,
      "Ã": 131,
      "Ä": 132,
      "Å": 133,
      "Æ": 134,
      "Ç": 135,
      "È": 136,
      "É": 137,
      "Ê": 138,
      "Ë": 139,
      "Ì": 140,
      "Í": 141,
      "Î": 142,
      "Ï": 143,
      "Ð": 144,
      "Ñ": 145,
      "Ò": 146,
      "Ó": 147,
      "Ô": 148,
      "Õ": 149,
      "Ö": 150,
      "×": 151,
      "Ø": 152,
      "Ù": 153,
      "Ú": 154,
      "Û": 155,
      "Ü": 156,
      "Ý": 157,
      "Þ": 158,
      "ß": 159,
      "à": 160,
      "á": 161,
      "â": 162,
      "ã": 163,
      "ä": 164,
      "å": 165,
      "æ": 166,
      "ç": 167,
      "è": 168,
      "é": 169,
      "ê": 170,
      "ë": 171,
      "ì": 172,
      "í": 173,
      "î": 174,
      "ï": 175,
      "ð": 176,
      "ñ": 177,
      "ò": 178,
      "ó": 179,
      "ô": 180,
      "õ": 181,
      "ö": 182,
      "÷": 183,
      "ø": 184,
      "ù": 185,
      "ú": 186,
      "û": 187,
      "ü": 188,
      "ý": 189,
      "þ": 190,
      "ÿ": 191,
      "Ā": 192,
      "ā": 193,
      "Ă": 194,
      "ă": 195,
      "Ą": 196,
      "ą": 197,
      "Ć": 198,
      "ć": 199,
      "Ĉ": 200,
      "ĉ": 201,
      "Ċ": 202,
      "ċ": 203,
      "Č": 204,
      "č": 205,
      "Ď": 206,
      "ď": 207,
      "Đ": 208,
      "đ": 209,
      "Ē": 210,
      "ē": 211,
      "Ĕ": 212,
      "ĕ": 213,
      "Ė": 214,
      "ė": 215,
      "Ę": 216,
      "ę": 217,
      "Ě": 218,
      "ě": 219,
      "Ĝ": 220,
      "ĝ": 221,
      "Ğ": 222,
      "ğ": 223,
      "Ġ": 224,
      "ġ": 225,
      "Ģ": 226,
      "ģ": 227,
      "Ĥ": 228,
      "ĥ": 229,
      "Ħ": 230,
      "ħ": 231,
      "Ĩ": 232,
      "ĩ": 233,
      "Ī": 234,
      "ī": 235,
      "Ĭ": 236,
      "ĭ": 237,
      "Į": 238,
      "į": 239,
      "İ": 240,
      "ı": 241,
      "Ĳ": 242,
      "ĳ": 243,
      "Ĵ": 244,
      "ĵ": 245,
      "Ķ": 246,
      "ķ": 247,
      "ĸ": 248,
      "Ĺ": 249,
      "ĺ": 250,
      "Ļ": 251,
      "ļ": 252,
      "Ľ": 253,
      "ľ": 254,
      "Ŀ": 255,
      "ŀ": 256,
      "Ł": 257,
      "ł": 258,
      "Ń": 259,
      "he": 260,
      "Ġt": 261,
      "Ġa": 262,
      "Ġs": 263,
      "Ġw": 264,
      "nd": 265,
      "Ġthe": 266,
      "ed": 267,
      "Ġand": 268,
      "in": 269,
      "Ġb": 270,
      "Ġto": 271,
      "Ġh": 272,
      "Ġwa": 273,
      "re": 274,
      "Ġf": 275,
      "it": 276,
      "ou": 277,
      "Ġl": 278,
      "Ġc": 279,
      "er": 280,
      "Ġhe": 281,
      "Ġd": 282,
      "Ġwas": 283,
      "Ġm": 284,
      "Ġp": 285,
      "Ġo": 286,
      "om": 287,
      "ĠT": 288,
      "ay": 289,
      "ing": 290,
      "ar": 291,
      "is": 292,
      "Ġg": 293,
      "id": 294,
      "il": 295,
      "en": 296,
      "at": 297,
      "Ġsa": 298,
      "Ġn": 299,
      "Ġha": 300,
      "ĠS": 301,
      "an": 302,
      "im": 303,
      "ĠThe": 304,
      "on": 305,
      "or": 306,
      "ll": 307,
      "Ġit": 308,
      "Ġth": 309,
      "le": 310,
      "ĠH": 311,
      "et": 312,
      "Ġher": 313,
      "ir": 314,
      "ĠHe": 315,
      "ot": 316,
      "ĠShe": 317,
      "ver": 318,
      "es": 319,
      "Ġin": 320,
      "ow": 321,
      "Ġe": 322,
      "ck": 323,
      "ut": 324,
      "Ġu": 325,
      "ld": 326,
      "Ġsaid": 327,
      "oo": 328,
      "Ġy": 329,
      "ig": 330,
      "Ġr": 331,
      "Ġ\"": 332,
      "Ġbe": 333,
      "Ġst": 334,
      "Ġshe": 335,
      "ce": 336,
      "am": 337,
      "ĠThey": 338,
      "pp": 339,
      "ith": 340,
      "Ġwith": 341,
      "ke": 342,
      "Ġso": 343,
      "ĠI": 344,
      "On": 345,
      "ve": 346,
      "ked": 347,
      "Ġof": 348,
      "Ġon": 349,
      "Ġhis": 350,
      "ri": 351,
      "Ġpl": 352,
      "very": 353,
      "ily": 354,
      "ad": 355,
      "Ġyou": 356,
      "nt": 357,
      "Ġday": 358,
      "Ġup": 359,
      "ĠL": 360,
      "Ġthat": 361,
      "Ġhad": 362,
      "st": 363,
      "Ġplay": 364,
      "el": 365,
      "The": 366,
      "Ġwe": 367,
      "Ġfor": 368,
      "Ġthey": 369,
      "ould": 370,
      "un": 371,
      "itt": 372,
      "ent": 373,
      "ĠB": 374,
      "'s": 375,
      "Ġmom": 376,
      "Ġli": 377,
      "my": 378,
      "ly": 379,
      "ch": 380,
      "out": 381,
      "Ġhapp": 382,
      "her": 383,
      "ound": 384,
      "Ġsh": 385,
      "ittle": 386,
      "all": 387,
      "Ġwant": 388,
      "Ġsm": 389,
      "Ġlittle": 390,
      "ĠLily": 391,
      "ime": 392,
      "ome": 393,
      "end": 394,
      "Ġthere": 395,
      "Ġvery": 396,
      "ĠĊ": 397,
      "Ġtime": 398,
      "Ġwh": 399,
      "se": 400,
      "ht": 401,
      "Ġk": 402,
      "ack": 403,
      "Ġdo": 404,
      "Ġre": 405,
      "Ġne": 406,
      "Ġbig": 407,
      "al": 408,
      "Ġhappy": 409,
      "Ġnot": 410,
      "Ġas": 411,
      "riend": 412,
      "Ġfriend": 413,
      "ĠM": 414,
      "Ġan": 415,
      "Ġbut": 416,
      "Ġsaw": 417,
      "ĠIt": 418,
      "Ġloo": 419,
      "ra": 420,
      "ug": 421,
      "Ġis": 422,
      "'t": 423,
      "!\"": 424,
      "ry": 425,
      "One": 426,
      ".\"": 427,
      "Once": 428,
      "ake": 429,
      "ter": 430,
      "ore": 431,
      "ide": 432,
      "ec": 433,
      "ved": 434,
      "Ġwere": 435,
      "Ġbo": 436,
      "irl": 437,
      "Ġgirl": 438,
      "Ġhim": 439,
      "ĠJ": 440,
      "Ġse": 441,
      "Ġlo": 442,
      "Ġj": 443,
      "Ġtoo": 444,
      "Ġupon": 445,
      "Ġsmil": 446,
      "Ġgo": 447,
      "Ġout": 448,
      "ard": 449,
      "Ġwanted": 450,
      "Ġsp": 451,
      "fu": 452,
      "Ġex": 453,
      "ĠTim": 454,
      "ill": 455,
      "Ġat": 456,
      "ur": 457,
      "hen": 458,
      "Ġcould": 459,
      "ain": 460,
      "ind": 461,
      "way": 462,
      "round": 463,
      "ĠA": 464,
      "Ġthem": 465,
      "hing": 466,
      "Ġare": 467,
      "hed": 468,
      "Ġwent": 469,
      "art": 470,
      "ic": 471,
      "Ġdid": 472,
      "Ġtheir": 473,
      "ful": 474,
      "Ġall": 475,
      "Ġhave": 476,
      "rom": 477,
      "one": 478,
      "Ġcan": 479,
      "um": 480,
      "Ġfriends": 481,
      "ood": 482,
      "lp": 483,
      "ĠBen": 484,
      "ight": 485,
      "Ġnam": 486,
      "?\"": 487,
      "Ġhelp": 488,
      "Ġsmiled": 489,
      "Ã¢": 490,
      "âĤ": 491,
      "âĤ¬": 492,
      "Ġback": 493,
      "Ġkn": 494,
      "Ġfun": 495,
      "Ġcl": 496,
      "oug": 497,
      "Ġaround": 498,
      "ark": 499,
      "are": 500,
      "Ġle": 501,
      "omet": 502,
      "Ġlooked": 503,
      "Ġno": 504,
      "Ġasked": 505,
      "elt": 506,
      "op": 507,
      "Ġfe": 508,
      "Ġman": 509,
      "Ġfelt": 510,
      "Ġnamed": 511,
      "side": 512,
      "You": 513,
      "Ġbir": 514,
      "Ġlike": 515,
      "ure": 516,
      "Ġal": 517,
      "Ġboy": 518,
      "ice": 519,
      "get": 520,
      "ick": 521,
      "Ġsay": 522,
      "ĠOne": 523,
      "ame": 524,
      "Ġloved": 525,
      "Ġbr": 526,
      "Ġsomet": 527,
      "Ġstart": 528,
      "ong": 529,
      "Ġsee": 530,
      "Ġtoy": 531,
      "Ġme": 532,
      "Ġwould": 533,
      "Ġsc": 534,
      "Ġro": 535,
      "Ġbird": 536,
      "dd": 537,
      "Ġsome": 538,
      "ĠTom": 539,
      "as": 540,
      ",\"": 541,
      "ited": 542,
      "ree": 543,
      "Ġag": 544,
      "ĠW": 545,
      "gether": 546,
      "ĠTimmy": 547,
      "Ġwor": 548,
      "Ġexc": 549,
      "ade": 550,
      "Ġfa": 551,
      "Ġsomething": 552,
      "king": 553,
      "Ġstarted": 554,
      "ag": 555,
      "Ġaway": 556,
      "ings": 557,
      "Ġtogether": 558,
      "own": 559,
      "Ġwhat": 560,
      "Ġran": 561,
      "pped": 562,
      "oud": 563,
      "ab": 564,
      "ie": 565,
      "ell": 566,
      "Ġmake": 567,
      "Ġcar": 568,
      "Ġthen": 569,
      "Ġmade": 570,
      "hat": 571,
      "if": 572,
      "ared": 573,
      "Ġagain": 574,
      "ĠE": 575,
      "Ġco": 576,
      "ro": 577,
      "Ġla": 578,
      "Ġexcited": 579,
      "ther": 580,
      "Ġmu": 581,
      "Ġhome": 582,
      "Ġother": 583,
      "Ġfrom": 584,
      "Ġfl": 585,
      "ep": 586,
      "ss": 587,
      "Ġput": 588,
      "ĠBut": 589,
      "Ġnew": 590,
      "est": 591,
      "Ġwhen": 592,
      "pl": 593,
      "Ġsad": 594,
      "ought": 595,
      "Ġfound": 596,
      "Ġhug": 597,
      "Ġget": 598,
      "qu": 599,
      "ally": 600,
      "Ġch": 601,
      "Ġwho": 602,
      "Ġdec": 603,
      "ous": 604,
      "Ġgood": 605,
      "Ġpark": 606,
      "Ġsays": 607,
      "Ġab": 608,
      "ĠYou": 609,
      "Ġplaying": 610,
      "Ġwal": 611,
      "Ġevery": 612,
      "Lily": 613,
      "ach": 614,
      "Ġv": 615,
      "Ġbl": 616,
      "Ġpr": 617,
      "Ġthings": 618,
      "ried": 619,
      "Ġgot": 620,
      "ided": 621,
      "ave": 622,
      "ĠD": 623,
      "ook": 624,
      "Ġdecided": 625,
      "Ġthan": 626,
      "Ġbu": 627,
      "Ġone": 628,
      "ust": 629,
      "Ġliked": 630,
      "Ġfeel": 631,
      "udd": 632,
      "nder": 633,
      "ouse": 634,
      "Ġcame": 635,
      "Ġold": 636,
      "Ġdad": 637,
      "ara": 638,
      "Ġdown": 639,
      "ue": 640,
      "Ġbec": 641,
      "Ġfind": 642,
      "ite": 643,
      "Ġcare": 644,
      "our": 645,
      "Ġlook": 646,
      "Ġlot": 647,
      "Ġtree": 648,
      "Ġho": 649,
      "Ġdog": 650,
      "Ġscared": 651,
      "Ġyour": 652,
      "Ġthought": 653,
      "nn": 654,
      "Ġmy": 655,
      "udden": 656,
      "Ġtake": 657,
      "Ġabout": 658,
      "ap": 659,
      "Ġtook": 660,
      "Ġgra": 661,
      "eci": 662,
      "Ġdidn": 663,
      "Ġint": 664,
      "ched": 665,
      "Ġsw": 666,
      "ways": 667,
      "uddenly": 668,
      "Ġlaug": 669,
      "uck": 670,
      "ise": 671,
      "Ġkne": 672,
      "ĠMom": 673,
      "Ġmore": 674,
      "ĠF": 675,
      "Ġalways": 676,
      "Ġke": 677,
      "ened": 678,
      "ny": 679,
      "Ġpo": 680,
      "ess": 681,
      "ecial": 682,
      "Ġspecial": 683,
      "They": 684,
      "ist": 685,
      "ers": 686,
      "ned": 687,
      "ged": 688,
      "Ġoutside": 689,
      "fe": 690,
      "Ġcat": 691,
      "Ġpre": 692,
      "Ġtoys": 693,
      "nna": 694,
      "ant": 695,
      "Ġwill": 696,
      "Ġtr": 697,
      "lly": 698,
      "fter": 699,
      "Ġknow": 700,
      "Ġpe": 701,
      "Ġsk": 702,
      "Ġball": 703,
      "ob": 704,
      "Ġsun": 705,
      "Ġmo": 706,
      "Ġlear": 707,
      "ax": 708,
      "Ġmuch": 709,
      "Ġtw": 710,
      "Ġany": 711,
      "ĠEvery": 712,
      "Ġknew": 713,
      "ak": 714,
      "ish": 715,
      "ĠJack": 716,
      "Ġhow": 717,
      "ma": 718,
      "Ġmommy": 719,
      "Ġexpl": 720,
      "Ġpu": 721,
      "Ġcouldn": 722,
      "But": 723,
      "ive": 724,
      "Ġinto": 725,
      "os": 726,
      "Ġwater": 727,
      "reat": 728,
      "Ġrun": 729,
      "au": 730,
      "ven": 731,
      "Ġover": 732,
      "uc": 733,
      "Ġen": 734,
      "ĠSam": 735,
      "Ġthis": 736,
      "ĠJo": 737,
      "Ġqu": 738,
      "Ġfo": 739,
      "Ġshow": 740,
      "and": 741,
      "here": 742,
      "Ġstr": 743,
      "ang": 744,
      "ty": 745,
      "Åĵ": 746,
      "Ġsor": 747,
      "Ġproud": 748,
      "ast": 749,
      "ank": 750,
      "Ġnever": 751,
      "oth": 752,
      "Ġroom": 753,
      "bb": 754,
      "Ġgave": 755,
      "Ġinside": 756,
      "Ġif": 757,
      "Ġheard": 758,
      "ace": 759,
      "Ġsmall": 760,
      "Ġop": 761,
      "Ġhouse": 762,
      "vent": 763,
      "Ġtold": 764,
      "Ġjust": 765,
      "ink": 766,
      "ĠSara": 767,
      "Ġor": 768,
      "ause": 769,
      "ump": 770,
      "ving": 771,
      "Ġcall": 772,
      "Ġplayed": 773,
      "Ġad": 774,
      "ning": 775,
      "Ġhand": 776,
      "ĠSo": 777,
      "ough": 778,
      "Ġwat": 779,
      "ars": 780,
      "ion": 781,
      "Ġcom": 782,
      "ĠÃ¢": 783,
      "Ġpick": 784,
      "Ġoff": 785,
      "ady": 786,
      "Ġhugged": 787,
      "Ġeat": 788,
      "Ġsorry": 789,
      "dy": 790,
      "ĠMax": 791,
      "aut": 792,
      "etter": 793,
      "Ġnice": 794,
      "Ġmany": 795,
      "Ġbecause": 796,
      "Ġeach": 797,
      "Ġflow": 798,
      "ine": 799,
      "ate": 800,
      "Ġpret": 801,
      "Ġlong": 802,
      "Ġbox": 803,
      "Ġsl": 804,
      "ntil": 805,
      "Mom": 806,
      "em": 807,
      "other": 808,
      "Ġthanked": 809,
      "Ġuntil": 810,
      "urp": 811,
      "Ġneed": 812,
      "Ġtried": 813,
      "Ġbeaut": 814,
      "ia": 815,
      "Ġbest": 816,
      "ild": 817,
      "Ġdre": 818,
      "Ġcu": 819,
      "ĠAnna": 820,
      "ucy": 821,
      "hn": 822,
      "ile": 823,
      "Ġdon": 824,
      "elf": 825,
      "'m": 826,
      "ane": 827,
      "pt": 828,
      "Ġsky": 829,
      "Ġwo": 830,
      "iful": 831,
      "Ġlots": 832,
      "Ġbear": 833,
      "Ġbeautiful": 834,
      "It": 835,
      "Ġgard": 836,
      "Ġgarden": 837,
      "ĠC": 838,
      "able": 839,
      "Ġlaughed": 840,
      "Ġfast": 841,
      "Ġtry": 842,
      "ĠAnd": 843,
      "ft": 844,
      "iz": 845,
      "Ġby": 846,
      "imal": 847,
      "Ġanimal": 848,
      "He": 849,
      "ac": 850,
      "ber": 851,
      "oy": 852,
      "Ġeven": 853,
      "Yes": 854,
      "ĠWe": 855,
      "Ġend": 856,
      "Ġcalled": 857,
      "urt": 858,
      "Ġbetter": 859,
      "Ġway": 860,
      "Tom": 861,
      "by": 862,
      "ort": 863,
      "Ġbra": 864,
      "Ġclos": 865,
      "Ġche": 866,
      "Ġtwo": 867,
      "lew": 868,
      "gry": 869,
      "Ġcle": 870,
      "Ġgr": 871,
      "Ġte": 872,
      "Let": 873,
      "ves": 874,
      "When": 875,
      "âĤ¬â": 876,
      "self": 877,
      "Ġcareful": 878,
      "iny": 879,
      "Ġjump": 880,
      "Ġcome": 881,
      "Ġkind": 882,
      "Th": 883,
      "Ġim": 884,
      "Ġhard": 885,
      "Ġgl": 886,
      "Ġlearned": 887,
      "ect": 888,
      "Ġboth": 889,
      "Ġfly": 890,
      "ĠHer": 891,
      "Ġadvent": 892,
      "ĠHis": 893,
      "sed": 894,
      "Ġar": 895,
      "Ġunder": 896,
      "Ġlove": 897,
      "olly": 898,
      "urpr": 899,
      "sh": 900,
      "Ġsn": 901,
      "Ġcol": 902,
      "Ġsurpr": 903,
      "ary": 904,
      "ĠThen": 905,
      "ies": 906,
      "Ġlived": 907,
      "ase": 908,
      "Ħ¢": 909,
      "Ġfam": 910,
      "Ġstay": 911,
      "âĤ¬âĦ¢": 912,
      "Ġstill": 913,
      "ummy": 914,
      "fore": 915,
      "Ġdoll": 916,
      "ĠMia": 917,
      "Ġflew": 918,
      "Ġloud": 919,
      "ct": 920,
      "Ġexplore": 921,
      "ock": 922,
      "Ġbrave": 923,
      "Ġfin": 924,
      "ĠFrom": 925,
      "Ġfi": 926,
      "ĠLucy": 927,
      "Ġrem": 928,
      "What": 929,
      "led": 930,
      "Ġadventure": 931,
      "ished": 932,
      "Ġsoon": 933,
      "Ġfar": 934,
      "bit": 935,
      "Ġhurt": 936,
      "igh": 937,
      "Ġbefore": 938,
      "Ġlet": 939,
      "abbit": 940,
      "Ġnow": 941,
      "les": 942,
      "Ġred": 943,
      "Ġanimals": 944,
      "Ġgoing": 945,
      "dded": 946,
      "ĠWhen": 947,
      "Ġwalked": 948,
      "Ġfeeling": 949,
      "xt": 950,
      "Ġrabbit": 951,
      "Ġfr": 952,
      "wn": 953,
      "Ġfamily": 954,
      "ip": 955,
      "ĠBob": 956,
      "Ġwind": 957,
      "Ġstor": 958,
      "Ġkept": 959,
      "So": 960,
      "eet": 961,
      "age": 962,
      "Ġfore": 963,
      "That": 964,
      "thing": 965,
      "Ġsto": 966,
      "ople": 967,
      "Ġits": 968,
      "hes": 969,
      "Ġlist": 970,
      "Ġey": 971,
      "ool": 972,
      "ised": 973,
      "Tim": 974,
      "Ġwar": 975,
      "Ben": 976,
      "iced": 977,
      "be": 978,
      "No": 979,
      "Ġground": 980,
      "Ġshiny": 981,
      "Ġpeople": 982,
      "Ġbad": 983,
      "ied": 984,
      "Ġcon": 985,
      "Ġshould": 986,
      "ĠP": 987,
      "Ġfish": 988,
      "illy": 989,
      "ĠSuddenly": 990,
      "Ġshare": 991,
      "Ġsmile": 992,
      "Ġrock": 993,
      "aking": 994,
      "ting": 995,
      "Ġsafe": 996,
      "Ġnodded": 997,
      "Ġopened": 998,
      "Ġwonder": 999,
      "Ġever": 1000,
      "maz": 1001,
      "Ġclean": 1002,
      "Ġamaz": 1003,
      "Ġbed": 1004,
      "Ġtruck": 1005,
      "Ġwr": 1006,
      "ĠG": 1007,
      "Ġnext": 1008,
      "Ġeyes": 1009,
      "Ġbook": 1010,
      "Ġthr": 1011,
      "Ġimp": 1012,
      "Ġcry": 1013,
      "Ġpic": 1014,
      "Ġstopped": 1015,
      "Ġpretty": 1016,
      "ail": 1017,
      "Ġangry": 1018,
      "Ġblue": 1019,
      "Ġvo": 1020,
      "Ġye": 1021,
      "Ġboat": 1022,
      "Ġide": 1023,
      "ĠDad": 1024,
      "Ġdis": 1025,
      "Ġdel": 1026,
      "Ġwalking": 1027,
      "ious": 1028,
      "Ġru": 1029,
      "Ġwork": 1030,
      "joy": 1031,
      "Ġtre": 1032,
      "Ġnoticed": 1033,
      "ted": 1034,
      "Ġtur": 1035,
      "Ġwhile": 1036,
      "Ġcolor": 1037,
      "ange": 1038,
      "Suddenly": 1039,
      "oon": 1040,
      "Ġnoise": 1041,
      "Ġcr": 1042,
      "Ġun": 1043,
      "Ġstrong": 1044,
      "uch": 1045,
      "Ġidea": 1046,
      "kay": 1047,
      "Ġremem": 1048,
      "Ġgreat": 1049,
      "gan": 1050,
      "Ġlooking": 1051,
      "Ġnear": 1052,
      "raw": 1053,
      "Ġeveryone": 1054,
      "Ġpicked": 1055,
      "day": 1056,
      "imb": 1057,
      "Ġquick": 1058,
      "Ġclimb": 1059,
      "so": 1060,
      "isy": 1061,
      "Ġthree": 1062,
      "Ġdoor": 1063,
      "Ġkeep": 1064,
      "ff": 1065,
      "Ġgre": 1066,
      "Jo": 1067,
      "Ġenjoy": 1068,
      "Ġcuri": 1069,
      "bye": 1070,
      "Ġafter": 1071,
      "ĠJane": 1072,
      "Ġbright": 1073,
      "Ġforest": 1074,
      "hy": 1075,
      "Ġbeing": 1076,
      "Ġrepl": 1077,
      "Ġreal": 1078,
      "ble": 1079,
      "Ġapp": 1080,
      "Ġwait": 1081,
      "Ġbeen": 1082,
      "Ġcloser": 1083,
      "Ġdif": 1084,
      "irst": 1085,
      "Ġplace": 1086,
      "Ġshout": 1087,
      "Ġalso": 1088,
      "aug": 1089,
      "Ġwalk": 1090,
      "aught": 1091,
      "Ġpain": 1092,
      "Ġgive": 1093,
      "Ġremember": 1094,
      "Ġwhere": 1095,
      "ĠSp": 1096,
      "leep": 1097,
      "ream": 1098,
      "Ġquickly": 1099,
      "Ġcurious": 1100,
      "ng": 1101,
      "Ġsqu": 1102,
      "Ġde": 1103,
      "ge": 1104,
      "ture": 1105,
      "llow": 1106,
      "Ġyell": 1107,
      "ĠJoe": 1108,
      "Ġwatch": 1109,
      "Ġvoice": 1110,
      "ount": 1111,
      "Ġmag": 1112,
      "Ġgoodbye": 1113,
      "Ġhands": 1114,
      "Ġhead": 1115,
      "bbed": 1116,
      "Ġdress": 1117,
      "Ġfood": 1118,
      "ered": 1119,
      "Thank": 1120,
      "Ġface": 1121,
      "ĠN": 1122,
      "Ġsound": 1123,
      "Ġthink": 1124,
      "Ġreplied": 1125,
      "Ġflower": 1126,
      "Ġhere": 1127,
      "Ġmor": 1128,
      "Ġhop": 1129,
      "ĠJohn": 1130,
      "Ġfollow": 1131,
      "Ġbit": 1132,
      "Ġbug": 1133,
      "ired": 1134,
      "Ġwatched": 1135,
      "aisy": 1136,
      "aybe": 1137,
      "ila": 1138,
      "Ġchild": 1139,
      "Ġgame": 1140,
      "Ġhopped": 1141,
      "Ġwarm": 1142,
      "Ġpicture": 1143,
      "Ġmouse": 1144,
      "Ġask": 1145,
      "Ġbro": 1146,
      "fere": 1147,
      "Ġlady": 1148,
      "ath": 1149,
      "Ġhas": 1150,
      "Ġbutter": 1151,
      "Ġjo": 1152,
      "Ġflowers": 1153,
      "Ġdiffere": 1154,
      "ĠSpot": 1155,
      "anc": 1156,
      "ĠMommy": 1157,
      "Sara": 1158,
      "She": 1159,
      "itc": 1160,
      "Ġrain": 1161,
      "ely": 1162,
      "Ġsweet": 1163,
      "ĠSarah": 1164,
      "us": 1165,
      "Ġac": 1166,
      "ĠSue": 1167,
      "Ġlea": 1168,
      "akes": 1169,
      "Ġdifferent": 1170,
      "ached": 1171,
      "lie": 1172,
      "Ġname": 1173,
      "Ġtra": 1174,
      "Ġper": 1175,
      "Ġbegan": 1176,
      "Ġstore": 1177,
      "ĠEveryone": 1178,
      "Ġnight": 1179,
      "lease": 1180,
      "Ġsure": 1181,
      "Ġhappened": 1182,
      "Ġworld": 1183,
      "Her": 1184,
      "Ġtow": 1185,
      "Ġmum": 1186,
      "Ġshowed": 1187,
      "Ġtell": 1188,
      "Ġfirst": 1189,
      "Ġseen": 1190,
      "ull": 1191,
      "Ġhigh": 1192,
      "Ġus": 1193,
      "Ġmagic": 1194,
      "Ġown": 1195,
      "Ġreally": 1196,
      "Ġshouted": 1197,
      "Can": 1198,
      "Ġtal": 1199,
      "Ġready": 1200,
      "more": 1201,
      "nts": 1202,
      "ĠAs": 1203,
      "Ġanymore": 1204,
      "Ġ-": 1205,
      "ĠR": 1206,
      "ppy": 1207,
      "ster": 1208,
      "Ġlisten": 1209,
      "Ġpull": 1210,
      "Ġthrough": 1211,
      "ol": 1212,
      "where": 1213,
      "Ġtired": 1214,
      "Ġwaved": 1215,
      "ĠDaisy": 1216,
      "Ġbecame": 1217,
      "Ġrunning": 1218,
      "Look": 1219,
      "We": 1220,
      "iss": 1221,
      "Ġright": 1222,
      "Ġgrass": 1223,
      "Jack": 1224,
      "Ġhaving": 1225,
      "Ġstick": 1226,
      "Ġmean": 1227,
      "Ġjumped": 1228,
      "Ġhelped": 1229,
      "Ġimport": 1230,
      "John": 1231,
      "ose": 1232,
      "ndma": 1233,
      "Ġpare": 1234,
      "Ġsmell": 1235,
      "Ġglad": 1236,
      "Ġsurprise": 1237,
      "After": 1238,
      "Ġsand": 1239,
      "Ġuse": 1240,
      "Ġwhy": 1241,
      "Ġhole": 1242,
      "Ġimportant": 1243,
      "Ġkid": 1244,
      "Ġbrother": 1245,
      "Ġgrabbed": 1246,
      "Ġtast": 1247,
      "Ġdark": 1248,
      "imes": 1249,
      "ĠMolly": 1250,
      "ized": 1251,
      "Ġyears": 1252,
      "kes": 1253,
      "Ġparents": 1254,
      "Ġfro": 1255,
      "Ġbeh": 1256,
      "Ġopen": 1257,
      "Ġcont": 1258,
      "Ġtop": 1259,
      "Ġfill": 1260,
      "Ġreached": 1261,
      "Ġflo": 1262,
      "Ġbutterf": 1263,
      "mer": 1264,
      "Ġz": 1265,
      "Ġam": 1266,
      "Ġsleep": 1267,
      "Ġste": 1268,
      "Ġgreen": 1269,
      "Ġate": 1270,
      "Mommy": 1271,
      "ient": 1272,
      "Ġmess": 1273,
      "fully": 1274,
      "Ġwood": 1275,
      "Ġokay": 1276,
      "cket": 1277,
      "Ġkitc": 1278,
      "Ġblock": 1279,
      "Ġkitchen": 1280,
      "Ġdone": 1281,
      "Ġonly": 1282,
      "Ġfell": 1283,
      "Ġwonderful": 1284,
      "ĠLet": 1285,
      "Anna": 1286,
      "Ġour": 1287,
      "Ġthing": 1288,
      "ass": 1289,
      "Ġprin": 1290,
      "Ġyellow": 1291,
      "ner": 1292,
      "Ġunderst": 1293,
      "Ġsail": 1294,
      "Ġdoes": 1295,
      "Ġbirds": 1296,
      "uff": 1297,
      "Ġyummy": 1298,
      "Ġcatch": 1299,
      "Ġperf": 1300,
      "Ġfrog": 1301,
      "ash": 1302,
      "Ġcoming": 1303,
      "zy": 1304,
      "ather": 1305,
      "Ġkids": 1306,
      "Ġcook": 1307,
      "Ġdr": 1308,
      "Ġstory": 1309,
      "Ġdelic": 1310,
      "Ġstop": 1311,
      "Ġfav": 1312,
      "Ġlearn": 1313,
      "ĠTh": 1314,
      "Ġsoft": 1315,
      "room": 1316,
      "Wow": 1317,
      "Ġless": 1318,
      "Ġhappily": 1319,
      "Ġspot": 1320,
      "Ġworry": 1321,
      "Ġrest": 1322,
      "Ġslow": 1323,
      "th": 1324,
      "Ġhid": 1325,
      "ren": 1326,
      "Ġforg": 1327,
      "Ġhimself": 1328,
      "Ġslide": 1329,
      "Ġenjoyed": 1330,
      "Ġtall": 1331,
      "Ġmon": 1332,
      "ĠThat": 1333,
      "Ġsing": 1334,
      "Ġdin": 1335,
      "Ġdraw": 1336,
      "Ġgi": 1337,
      "Ġcarefully": 1338,
      "Ġchildren": 1339,
      "Ġbehind": 1340,
      "Ġlight": 1341,
      "Ġcake": 1342,
      "Ġdri": 1343,
      "Ġdro": 1344,
      "Ġhair": 1345,
      "ance": 1346,
      "ĠIn": 1347,
      "Ġcold": 1348,
      "Ġfire": 1349,
      "Ġbutterfly": 1350,
      "Ġwished": 1351,
      "Ġdream": 1352,
      "Ġfix": 1353,
      "iver": 1354,
      "ĠLila": 1355,
      "unny": 1356,
      "Ġpretend": 1357,
      "Ġamazing": 1358,
      "Ġtrees": 1359,
      "Ġlooks": 1360,
      "\".": 1361,
      "ul": 1362,
      "rel": 1363,
      "Ġmaking": 1364,
      "Ġherself": 1365,
      "Ġfox": 1366,
      "'re": 1367,
      "Don": 1368,
      "Ġice": 1369,
      "ens": 1370,
      "ign": 1371,
      "ama": 1372,
      "ards": 1373,
      "Ġanything": 1374,
      "Hell": 1375,
      "ued": 1376,
      "ined": 1377,
      "reed": 1378,
      "aby": 1379,
      "Ġremembered": 1380,
      "Ġmorning": 1381,
      "Hello": 1382,
      "Ġtri": 1383,
      "Ġlion": 1384,
      "Ġsees": 1385,
      "Ġfilled": 1386,
      "Ġsho": 1387,
      "Ġfriendly": 1388,
      "ĠAfter": 1389,
      "Ġcars": 1390,
      "Ġthank": 1391,
      "Ġmove": 1392,
      "Ġfinished": 1393,
      "ret": 1394,
      "Ġpart": 1395,
      "Ġwhite": 1396,
      "Sam": 1397,
      "Ġanother": 1398,
      "Ġspl": 1399,
      "Ġballoon": 1400,
      "Ġarri": 1401,
      "Ġwrong": 1402,
      "Ġleaves": 1403,
      "Ġsat": 1404,
      "Ġhor": 1405,
      "Ġlost": 1406,
      "Ġfunny": 1407,
      "ross": 1408,
      "Ġfollowed": 1409,
      "ey": 1410,
      "Ġtouch": 1411,
      "Ġfull": 1412,
      "ĠThere": 1413,
      "pping": 1414,
      "Ġworked": 1415,
      "Ġsurprised": 1416,
      "As": 1417,
      "ee": 1418,
      "ated": 1419,
      "Ġleft": 1420,
      "Ġlaugh": 1421,
      "Ġblocks": 1422,
      "Ġpet": 1423,
      "Ġused": 1424,
      "Ġsear": 1425,
      "Ġvis": 1426,
      "ĠCan": 1427,
      "Ġset": 1428,
      "Ġhear": 1429,
      "Ġprom": 1430,
      "Ġpond": 1431,
      "Ġtable": 1432,
      "inally": 1433,
      "Ġcut": 1434,
      "Ġheld": 1435,
      "Ġdir": 1436,
      "oring": 1437,
      "Ġbigg": 1438,
      "Ġfair": 1439,
      "andy": 1440,
      "Ġperfect": 1441,
      "'ll": 1442,
      "ins": 1443,
      "Ġbunny": 1444,
      "ask": 1445,
      "Ġarrived": 1446,
      "Ġgone": 1447,
      "Ġread": 1448,
      "icy": 1449,
      "Ġenough": 1450,
      "Ġwindow": 1451,
      "Ġbre": 1452,
      "Ġmight": 1453,
      "ater": 1454,
      "Ġel": 1455,
      "Ġable": 1456,
      "anger": 1457,
      "Ġrealized": 1458,
      "Ġfavor": 1459,
      "aring": 1460,
      "ĠJill": 1461,
      "Ġgetting": 1462,
      "ape": 1463,
      "Ġdeep": 1464,
      "cess": 1465,
      "Ġgent": 1466,
      "Ġsomeone": 1467,
      "Ġpuppy": 1468,
      "Ġstrange": 1469,
      "ĠGra": 1470,
      "ĠNow": 1471,
      "Ġlesson": 1472,
      "Ġfavorite": 1473,
      "ire": 1474,
      "Ġpen": 1475,
      "ĠSally": 1476,
      "irrel": 1477,
      "Ġyes": 1478,
      "Ġlikes": 1479,
      "Ġswim": 1480,
      "Ġdelicious": 1481,
      "Ġcreat": 1482,
      "Ġmoment": 1483,
      "Ġfew": 1484,
      "Ġfinally": 1485,
      "ken": 1486,
      "Ġtight": 1487,
      "Ġbow": 1488,
      "Ġhat": 1489,
      "Ġhun": 1490,
      "ation": 1491,
      "ĠDo": 1492,
      "Ġbus": 1493,
      "Ġcontin": 1494,
      "Ġelse": 1495,
      "At": 1496,
      "Ġve": 1497,
      "Ġair": 1498,
      "Ġmagical": 1499,
      "Ġunderstand": 1500,
      "sp": 1501,
      "Ġbaby": 1502,
      "Ġju": 1503,
      "oom": 1504,
      "Ġbag": 1505,
      "Ġeverything": 1506,
      "Ġbuy": 1507,
      "Ġneeded": 1508,
      "Ġturn": 1509,
      "Ġstepped": 1510,
      "ich": 1511,
      "ling": 1512,
      "Ġcried": 1513,
      "Ġcool": 1514,
      "Then": 1515,
      "Ġdoing": 1516,
      "Ġbrought": 1517,
      "Ġagreed": 1518,
      "ĠEm": 1519,
      "Ġsquirrel": 1520,
      "Ġcontinued": 1521,
      "From": 1522,
      "His": 1523,
      "air": 1524,
      "Ġfur": 1525,
      "Ġmar": 1526,
      "immy": 1527,
      "Timmy": 1528,
      "Ġbroken": 1529,
      "av": 1530,
      "Ġcount": 1531,
      "Ġhold": 1532,
      "Ġcomp": 1533,
      "This": 1534,
      "Ġwoods": 1535,
      "apped": 1536,
      "bo": 1537,
      "row": 1538,
      "shed": 1539,
      "Ġtail": 1540,
      "Ġsec": 1541,
      "Ġwall": 1542,
      "Ġplease": 1543,
      "asure": 1544,
      "ĠK": 1545,
      "Ġmet": 1546,
      "Ġcloud": 1547,
      "me": 1548,
      "red": 1549,
      "ually": 1550,
      "Ġhill": 1551,
      "Ġpat": 1552,
      "ope": 1553,
      "Ġflying": 1554,
      "Ġside": 1555,
      "Ġwasn": 1556,
      "Ġarm": 1557,
      "ctor": 1558,
      "Ġfarmer": 1559,
      "ĠTo": 1560,
      "amp": 1561,
      "Ġspark": 1562,
      "Ġroll": 1563,
      "Ġsong": 1564,
      "Ġwon": 1565,
      "Ġwaited": 1566,
      "ister": 1567,
      "ons": 1568,
      "Ġbee": 1569,
      "ĠWhat": 1570,
      "Ġvisit": 1571,
      "ds": 1572,
      "oney": 1573,
      "Ġbooks": 1574,
      "co": 1575,
      "Ġduck": 1576,
      "Ġbeach": 1577,
      "Ġsmiles": 1578,
      "Ġclose": 1579,
      "Ġmost": 1580,
      "Ġpi": 1581,
      "Ġtrying": 1582,
      "Ġdinner": 1583,
      "Ġbigger": 1584,
      "ike": 1585,
      "Ġmakes": 1586,
      "Ġjoy": 1587,
      "Ġcolors": 1588,
      "Ġfloor": 1589,
      "der": 1590,
      "Ġfight": 1591,
      "Ġlake": 1592,
      "Ġcast": 1593,
      "Ġplan": 1594,
      "Ġseem": 1595,
      "Ġswing": 1596,
      "Ġpoin": 1597,
      "iet": 1598,
      "ze": 1599,
      "Ġhot": 1600,
      "Ġteac": 1601,
      "Ġamazed": 1602,
      "Ġslowly": 1603,
      "lf": 1604,
      "ames": 1605,
      "ĠAll": 1606,
      "Ġfaster": 1607,
      "Ġclimbed": 1608,
      "Ġbreak": 1609,
      "Ġsister": 1610,
      "Ġpap": 1611,
      "Ġbel": 1612,
      "Ġpaint": 1613,
      "Maybe": 1614,
      "Ġkite": 1615,
      "Ġwet": 1616,
      "Ġbath": 1617,
      "ott": 1618,
      "ĠJen": 1619,
      "ĠDaddy": 1620,
      "Ġhide": 1621,
      "Ġfall": 1622,
      "oup": 1623,
      "Ġow": 1624,
      "ence": 1625,
      "Ġsmo": 1626,
      "Ġbuild": 1627,
      "ventually": 1628,
      "Ġstayed": 1629,
      "uffy": 1630,
      "Ġteacher": 1631,
      "ries": 1632,
      "rag": 1633,
      "Ġjob": 1634,
      "Ġgrandma": 1635,
      "Ġlistened": 1636,
      "Ġpulled": 1637,
      "Ġhungry": 1638,
      "uit": 1639,
      "Ġlon": 1640,
      "Ġdanger": 1641,
      "itty": 1642,
      "Ġclot": 1643,
      "Ġcup": 1644,
      "Ġcookies": 1645,
      "Ġmonster": 1646,
      "Oh": 1647,
      "Ġsometimes": 1648,
      "Ġscary": 1649,
      "Ġblack": 1650,
      "Ġblank": 1651,
      "Ġquiet": 1652,
      "Ġgrow": 1653,
      "Ġadventures": 1654,
      "Ġturned": 1655,
      "Ġcray": 1656,
      "Ġclothes": 1657,
      "Ġsuch": 1658,
      "Ġgu": 1659,
      "Ġthre": 1660,
      "Ġalone": 1661,
      "ĠThis": 1662,
      "Ġlonely": 1663,
      "Ġblanket": 1664,
      "Why": 1665,
      "eared": 1666,
      "ix": 1667,
      "Ġdanc": 1668,
      "Ġstu": 1669,
      "ĠBenny": 1670,
      "Ġexploring": 1671,
      "Ġtowards": 1672,
      "Ġpa": 1673,
      "ises": 1674,
      "Ġride": 1675,
      "Ġworried": 1676,
      "ek": 1677,
      "elc": 1678,
      "ĠBilly": 1679,
      "Ġliving": 1680,
      "Ġje": 1681,
      "Ġpol": 1682,
      "Ġpictures": 1683,
      "Ġjoin": 1684,
      "Ġpromised": 1685,
      "Ġcastle": 1686,
      "Hi": 1687,
      "mb": 1688,
      "Ġsame": 1689,
      "Ġnap": 1690,
      "ment": 1691,
      "Ġbar": 1692,
      "ower": 1693,
      "Ġwants": 1694,
      "ĠMary": 1695,
      "Ġatt": 1696,
      "ield": 1697,
      "Ġeverywhere": 1698,
      "ours": 1699,
      "Ġorange": 1700,
      "Ġasks": 1701,
      "Ġtalk": 1702,
      "Ġforgot": 1703,
      "OK": 1704,
      "Ġsu": 1705,
      "Ġsilly": 1706,
      "igg": 1707,
      "Ġplant": 1708,
      "Ġshared": 1709,
      "Ġneigh": 1710,
      "eces": 1711,
      "Ġothers": 1712,
      "Ġlonger": 1713,
      "Ġpieces": 1714,
      "Ġneighb": 1715,
      "ney": 1716,
      "Ġmat": 1717,
      "Ġmust": 1718,
      "Ġcheered": 1719,
      "ountain": 1720,
      "avy": 1721,
      "sw": 1722,
      "Ġwelc": 1723,
      "Ġtown": 1724,
      "unch": 1725,
      "Ġsea": 1726,
      "Ġleave": 1727,
      "Ġsecret": 1728,
      "set": 1729,
      "Ġpink": 1730,
      "Ġrace": 1731,
      "Ġstre": 1732,
      "ĠTommy": 1733,
      "Ġcolorful": 1734,
      "Ġacross": 1735,
      "Ġhorse": 1736,
      "Ġjuice": 1737,
      "Ġpaper": 1738,
      "ever": 1739,
      "Ġansw": 1740,
      "ssed": 1741,
      "Ġfruit": 1742,
      "Ġprincess": 1743,
      "Ġdirty": 1744,
      "br": 1745,
      "Ġfree": 1746,
      "Ġra": 1747,
      "Ġriver": 1748,
      "Ġbelie": 1749,
      "Ġland": 1750,
      "Ġdolls": 1751,
      "Lucy": 1752,
      "zz": 1753,
      "Ġwag": 1754,
      "Ġheavy": 1755,
      "chool": 1756,
      "Ġhelping": 1757,
      "Ġclapped": 1758,
      "ipped": 1759,
      "Ġbott": 1760,
      "umb": 1761,
      "Ġmus": 1762,
      "Ġshoes": 1763,
      "weet": 1764,
      "Ġsuddenly": 1765,
      "Ġhig": 1766,
      "Ġfield": 1767,
      "eter": 1768,
      "Ġwoke": 1769,
      "Ġdangerous": 1770,
      "Do": 1771,
      "Finally": 1772,
      "app": 1773,
      "Ġsit": 1774,
      "Ġschool": 1775,
      "vered": 1776,
      "Ġshap": 1777,
      "Ġbucket": 1778,
      "Ġparty": 1779,
      "Ġowl": 1780,
      "And": 1781,
      "Bob": 1782,
      "iting": 1783,
      "Ġpra": 1784,
      "Ġpro": 1785,
      "Ġstars": 1786,
      "Ġdoctor": 1787,
      "Ġalong": 1788,
      "Ġclosed": 1789,
      "Ġdisapp": 1790,
      "Ġseemed": 1791,
      "Ġmix": 1792,
      "Ġyoung": 1793,
      "Ġwear": 1794,
      "Ġsmart": 1795,
      "Ġdaddy": 1796,
      "ucky": 1797,
      "Ġshapes": 1798,
      "Ġbite": 1799,
      "Ġtoday": 1800,
      "Ġcave": 1801,
      "ored": 1802,
      "ained": 1803,
      "Ġcrying": 1804,
      "Ġthinks": 1805,
      "Ġtrain": 1806,
      "ho": 1807,
      "Ġcor": 1808,
      "adow": 1809,
      "ased": 1810,
      "ĠFl": 1811,
      "Ġeating": 1812,
      "Ġyear": 1813,
      "Ġtreasure": 1814,
      "Ġgentle": 1815,
      "Ġbelieve": 1816,
      "Ġmusic": 1817,
      "Ġhigher": 1818,
      "Sure": 1819,
      "de": 1820,
      "Ġcour": 1821,
      "Ġcaught": 1822,
      "Ġpurp": 1823,
      "less": 1824,
      "ateful": 1825,
      "Ġsnow": 1826,
      "Ġdrove": 1827,
      "Ġwelcome": 1828,
      "oc": 1829,
      "ph": 1830,
      "Ġes": 1831,
      "ining": 1832,
      "Ġmother": 1833,
      "Ġrelie": 1834,
      "Ġnoises": 1835,
      "Ġmoved": 1836,
      "Ġcourse": 1837,
      "Ġpurple": 1838,
      "Ġpath": 1839,
      "Ġob": 1840,
      "Ġsack": 1841,
      "Ġnaught": 1842,
      "orm": 1843,
      "Ġwithout": 1844,
      "ĠMr": 1845,
      "ĠMaybe": 1846,
      "Ġbubb": 1847,
      "Ġgrateful": 1848,
      "Ġstories": 1849,
      "Ġnearby": 1850,
      "Ġhoped": 1851,
      "Okay": 1852,
      "fort": 1853,
      "eddy": 1854,
      "oun": 1855,
      "Ġce": 1856,
      "Ġcra": 1857,
      "Ġheal": 1858,
      "Ġmine": 1859,
      "Ġmoney": 1860,
      "Ġpers": 1861,
      "Ġhappen": 1862,
      "Ġwords": 1863,
      "Ġdisco": 1864,
      "Ġrelieved": 1865,
      "thy": 1866,
      "yard": 1867,
      "Ġsign": 1868,
      "Ġcream": 1869,
      "Ġmark": 1870,
      "Ġpack": 1871,
      "itting": 1872,
      "alm": 1873,
      "ugg": 1874,
      "fused": 1875,
      "ĠAmy": 1876,
      "Ġapple": 1877,
      "Ġbroke": 1878,
      "Ġfairy": 1879,
      "Molly": 1880,
      "Ġ3": 1881,
      "Ġfence": 1882,
      "Ġpast": 1883,
      "Ġgif": 1884,
      "Ġrel": 1885,
      "Ġjour": 1886,
      "Ġsmiling": 1887,
      "Ġbring": 1888,
      "Ġscream": 1889,
      "Ġcoll": 1890,
      "Ġsearch": 1891,
      "rot": 1892,
      "uched": 1893,
      "Ġbask": 1894,
      "Ġtouched": 1895,
      "Ġlunch": 1896,
      "Ġcandy": 1897,
      "Ġmin": 1898,
      "Ġbackyard": 1899,
      "Ġpocket": 1900,
      "ĠSoon": 1901,
      "ocked": 1902,
      "Ġmoral": 1903,
      "ĠInside": 1904,
      "Ġnaughty": 1905,
      "Ġbasket": 1906,
      "Ġdrag": 1907,
      "orrow": 1908,
      "Ġyard": 1909,
      "Ġupset": 1910,
      "Ġshop": 1911,
      "Ġpushed": 1912,
      "Ġstand": 1913,
      "outh": 1914,
      "Ġreach": 1915,
      "ions": 1916,
      "Ġimag": 1917,
      "Ġsnack": 1918,
      "Ġbugs": 1919,
      "Ġthrew": 1920,
      "Max": 1921,
      "Ġtiny": 1922,
      "Ġwish": 1923,
      "Ġcraw": 1924,
      "Ġdry": 1925,
      "Ġthough": 1926,
      "leph": 1927,
      "Ġplac": 1928,
      "Hey": 1929,
      "Ġdropped": 1930,
      "la": 1931,
      "ming": 1932,
      "ts": 1933,
      "Ġtaking": 1934,
      "Ġsitting": 1935,
      "Ġboun": 1936,
      "ĠTweet": 1937,
      "Ġinst": 1938,
      "cked": 1939,
      "Ġrocks": 1940,
      "Ġsmooth": 1941,
      "een": 1942,
      "to": 1943,
      "Ġtreat": 1944,
      "Ġwin": 1945,
      "Ġwild": 1946,
      "Ġspr": 1947,
      "Ġexp": 1948,
      "Ġexciting": 1949,
      "Ġlaughing": 1950,
      "Ġtrou": 1951,
      "Ġtwins": 1952,
      "izz": 1953,
      "Ġstreet": 1954,
      "Ġbike": 1955,
      "Ġheart": 1956,
      "Ġmail": 1957,
      "Ġph": 1958,
      "Ġear": 1959,
      "Ġeventually": 1960,
      "Ġrope": 1961,
      "Ġonto": 1962,
      "Ġwell": 1963,
      "Ġresp": 1964,
      "Ġpres": 1965,
      "Ġruns": 1966,
      "gs": 1967,
      "Ġwings": 1968,
      "Ġfig": 1969,
      "Ġstone": 1970,
      "Ġstuck": 1971,
      "Ġrep": 1972,
      "ĠJimmy": 1973,
      "Ġspe": 1974,
      "Ġlem": 1975,
      "Ġbrown": 1976,
      "ĠCh": 1977,
      "Ġwondered": 1978,
      "Ġdelight": 1979,
      "Ġowner": 1980,
      "thday": 1981,
      "Ġturns": 1982,
      "'d": 1983,
      "cle": 1984,
      "itch": 1985,
      "Ġcou": 1986,
      "Ġmiss": 1987,
      "Ġmouth": 1988,
      "Ġgather": 1989,
      "Ġinc": 1990,
      "Ġshining": 1991,
      "Ġret": 1992,
      "Ġjar": 1993,
      "Ġbush": 1994,
      "ize": 1995,
      "Ġthrow": 1996,
      "Ġclouds": 1997,
      "Ġpract": 1998,
      "Ġjourney": 1999,
      "Ġpresent": 2000,
      "gly": 2001,
      "ier": 2002,
      "Ġcir": 2003,
      "Ġmil": 2004,
      "Ġeag": 2005,
      "Ġugly": 2006,
      "vel": 2007,
      "Ġnothing": 2008,
      "ĠMama": 2009,
      "Ġadm": 2010,
      "Ġtasted": 2011,
      "Ġbusy": 2012,
      "Ġarms": 2013,
      "Ġbelong": 2014,
      "ĠFluffy": 2015,
      "Ġretur": 2016,
      "ear": 2017,
      "Ġap": 2018,
      "Ġben": 2019,
      "Ġbreat": 2020,
      "Ġfit": 2021,
      "issed": 2022,
      "ĠJake": 2023,
      "Ġspin": 2024,
      "Ġcarrot": 2025,
      "epend": 2026,
      "Ġpeace": 2027,
      "Ġsunsh": 2028,
      "ÅĵI": 2029,
      "Ġhope": 2030,
      "Ġsunshine": 2031,
      "Lila": 2032,
      "ead": 2033,
      "ped": 2034,
      "Ġtun": 2035,
      "Ġgames": 2036,
      "Ġgigg": 2037,
      "Ġinv": 2038,
      "key": 2039,
      "sting": 2040,
      "itten": 2041,
      "Ġbirthday": 2042,
      "ĠWith": 2043,
      "Ġcozy": 2044,
      "Ġswam": 2045,
      "Ġfoot": 2046,
      "Ġsearched": 2047,
      "Ġholding": 2048,
      "Ġminut": 2049,
      "Ġmilk": 2050,
      "Jane": 2051,
      "ere": 2052,
      "Ġstar": 2053,
      "Ġdays": 2054,
      "Ġmeadow": 2055,
      "Ġfeels": 2056,
      "Ġintere": 2057,
      "Ġcomes": 2058,
      "Ġspotted": 2059,
      "Ġsinging": 2060,
      "Ġpatient": 2061,
      "Ġrolled": 2062,
      "Ġdragon": 2063,
      "Ġlemon": 2064,
      "ond": 2065,
      "ward": 2066,
      "Ġhours": 2067,
      "idge": 2068,
      "Ġnet": 2069,
      "anch": 2070,
      "llo": 2071,
      "pper": 2072,
      "Ġkiss": 2073,
      "Ġbranch": 2074,
      "Ġmyster": 2075,
      "Ġfold": 2076,
      "Ġbought": 2077,
      "Ġdes": 2078,
      "Ġdance": 2079,
      "Ġlife": 2080,
      "Ġshr": 2081,
      "Ġspoon": 2082,
      "Ġhugs": 2083,
      "Tommy": 2084,
      "Ġcolour": 2085,
      "Ġwatching": 2086,
      "Ġacc": 2087,
      "Ġsandw": 2088,
      "Ġcrayons": 2089,
      "Now": 2090,
      "bow": 2091,
      "ps": 2092,
      "sc": 2093,
      "Ġwise": 2094,
      "Ġhit": 2095,
      "Ġletter": 2096,
      "lebr": 2097,
      "irt": 2098,
      "ung": 2099,
      "Ġexplained": 2100,
      "ĠCome": 2101,
      "Ġgroup": 2102,
      "Ġrainbow": 2103,
      "Ġdriver": 2104,
      "Ġneighbor": 2105,
      "Ġcelebr": 2106,
      "Every": 2107,
      "Good": 2108,
      "Of": 2109,
      "ground": 2110,
      "Ġteddy": 2111,
      "ont": 2112,
      "Ġlift": 2113,
      "Ġkick": 2114,
      "Ġspent": 2115,
      "Ġmeet": 2116,
      "Ġwouldn": 2117,
      "Ġcarry": 2118,
      "Ġgrab": 2119,
      "Ġkey": 2120,
      "Ġfront": 2121,
      "Ġstorm": 2122,
      "Ġforever": 2123,
      "Ġtasty": 2124,
      "Ġdrink": 2125,
      "Ġsplas": 2126,
      "Ġsplash": 2127,
      "Ġcollect": 2128,
      "dle": 2129,
      "nic": 2130,
      "Ġign": 2131,
      "Ġaf": 2132,
      "Ġpig": 2133,
      "Ġpass": 2134,
      "Ġsol": 2135,
      "adder": 2136,
      "Ġang": 2137,
      "Ġbutt": 2138,
      "Ġseek": 2139,
      "Ġvill": 2140,
      "Ġpuzz": 2141,
      "Ġwrite": 2142,
      "Ġpicnic": 2143,
      "ancy": 2144,
      "Ġcute": 2145,
      "Ġinteresting": 2146,
      "Just": 2147,
      "Later": 2148,
      "ball": 2149,
      "sy": 2150,
      "Ġlate": 2151,
      "Ġladder": 2152,
      "Ġpie": 2153,
      "Ġhang": 2154,
      "Ġthin": 2155,
      "Ġshy": 2156,
      "Ġneck": 2157,
      "Ġasleep": 2158,
      "oph": 2159,
      "Ġfeet": 2160,
      "Ġwhole": 2161,
      "Ġsunny": 2162,
      "Ġconfused": 2163,
      "Ġtower": 2164,
      "ĠGrandma": 2165,
      "Ġfigure": 2166,
      "ale": 2167,
      "aur": 2168,
      "man": 2169,
      "Ġtakes": 2170,
      "Ġsick": 2171,
      "Ġwhe": 2172,
      "Ġmad": 2173,
      "Ġmist": 2174,
      "Ġoce": 2175,
      "Ġgem": 2176,
      "Ġsang": 2177,
      "ord": 2178,
      "Ġrac": 2179,
      "cept": 2180,
      "Ġplayground": 2181,
      "Ġshook": 2182,
      "Ġrec": 2183,
      "Ġrocket": 2184,
      "Ġappeared": 2185,
      "Ġsounds": 2186,
      "Ġbowl": 2187,
      "Ġocean": 2188,
      "light": 2189,
      "Ġhar": 2190,
      "Ġcomet": 2191,
      "Ġhello": 2192,
      "Ġpot": 2193,
      "ident": 2194,
      "ĠSomet": 2195,
      "owed": 2196,
      "Ġeas": 2197,
      "Ġeleph": 2198,
      "Ġones": 2199,
      "Ġforget": 2200,
      "Ġwhich": 2201,
      "urse": 2202,
      "Ġhuge": 2203,
      "ular": 2204,
      "Ġdanced": 2205,
      "Ġbottle": 2206,
      "Ġplaces": 2207,
      "Ġrespect": 2208,
      "Ġelephant": 2209,
      "ible": 2210,
      "ness": 2211,
      "og": 2212,
      "Ġ'": 2213,
      "Ġent": 2214,
      "Ġdi": 2215,
      "Ġpower": 2216,
      "uts": 2217,
      "Ġround": 2218,
      "Ġplane": 2219,
      "raid": 2220,
      "ĠAl": 2221,
      "Ġknee": 2222,
      "Ġsmelly": 2223,
      "ĠThank": 2224,
      "ĠTogether": 2225,
      "Ġperson": 2226,
      "Ġinstead": 2227,
      "Ġafraid": 2228,
      "Ġpiece": 2229,
      "Come": 2230,
      "Ġact": 2231,
      "Ġlit": 2232,
      "Ġcalm": 2233,
      "Ġmummy": 2234,
      "Ġgar": 2235,
      "ats": 2236,
      "ittens": 2237,
      "Ġash": 2238,
      "Ġspicy": 2239,
      "Ġnose": 2240,
      "Ġrob": 2241,
      "Ġhopping": 2242,
      "Ġgrand": 2243,
      "Ġlovely": 2244,
      "Ġfarm": 2245,
      "Ġsmelled": 2246,
      "Ġdrive": 2247,
      "Ġswimming": 2248,
      "Ġphone": 2249,
      "Ġeager": 2250,
      "Mama": 2251,
      "hin": 2252,
      "hile": 2253,
      "ert": 2254,
      "Ġpool": 2255,
      "ĠSome": 2256,
      "Ġbell": 2257,
      "Ġstir": 2258,
      "ĠBr": 2259,
      "alous": 2260,
      "Ġswings": 2261,
      "ĠFinally": 2262,
      "Ġmoon": 2263,
      "Ġchest": 2264,
      "Ġteach": 2265,
      "Ġzoom": 2266,
      "Ġsailed": 2267,
      "Ġpenny": 2268,
      "Ġcreature": 2269,
      "ĠEmma": 2270,
      "board": 2271,
      "Ġjealous": 2272,
      "Ġaccident": 2273,
      "Ġvillage": 2274,
      "Ġrobot": 2275,
      "Jimmy": 2276,
      "St": 2277,
      "ove": 2278,
      "Ġser": 2279,
      "Ġlar": 2280,
      "Ġdist": 2281,
      "Ġpudd": 2282,
      "Ġkitten": 2283,
      "Ġcarried": 2284,
      "Ġchick": 2285,
      "Ġblow": 2286,
      "Ġbedroom": 2287,
      "Ġhiding": 2288,
      "ĠGrace": 2289,
      "ĠKitty": 2290,
      "Ġangel": 2291,
      "In": 2292,
      "Mum": 2293,
      "Mia": 2294,
      "Ġbur": 2295,
      "Ġwander": 2296,
      "Ġfing": 2297,
      "ity": 2298,
      "Ġmountain": 2299,
      "ĠSt": 2300,
      "ese": 2301,
      "Ġstood": 2302,
      "Ġjung": 2303,
      "Ġlaw": 2304,
      "Ġmud": 2305,
      "Ġcomfort": 2306,
      "Ġcheer": 2307,
      "Ġsleepy": 2308,
      "Ġgently": 2309,
      "Ġpointed": 2310,
      "Ġbench": 2311,
      "Ġjungle": 2312,
      "My": 2313,
      "ush": 2314,
      "Ġtom": 2315,
      "Ġfancy": 2316,
      "Ġlucky": 2317,
      "Ġcross": 2318,
      "Ġmed": 2319,
      "Ġpile": 2320,
      "anny": 2321,
      "ĠTheir": 2322,
      "ors": 2323,
      "let": 2324,
      "Ġshore": 2325,
      "Ġasking": 2326,
      "umber": 2327,
      "Ġhelpful": 2328,
      "ĠEverywhere": 2329,
      "Ġqueen": 2330,
      "Ġclever": 2331,
      "Ġstronger": 2332,
      "Ġgiant": 2333,
      "Ġgives": 2334,
      "ĠEmily": 2335,
      "Ġsparkly": 2336,
      "Ġscreamed": 2337,
      "Ġgathered": 2338,
      "Ġbreath": 2339,
      "Ġgarage": 2340,
      "Ġlarge": 2341,
      "eb": 2342,
      "uce": 2343,
      "Ġsur": 2344,
      "Ġwave": 2345,
      "ider": 2346,
      "Ġemb": 2347,
      "ighed": 2348,
      "Ġring": 2349,
      "ĠBe": 2350,
      "ĠJust": 2351,
      "Ġloves": 2352,
      "Ġexam": 2353,
      "urry": 2354,
      "Ġflut": 2355,
      "ĠAndy": 2356,
      "Ġjumping": 2357,
      "Ġtalking": 2358,
      "box": 2359,
      "Ġcorner": 2360,
      "Ġesc": 2361,
      "Dad": 2362,
      "Mummy": 2363,
      "ces": 2364,
      "den": 2365,
      "unt": 2366,
      "ual": 2367,
      "Ġtid": 2368,
      "Ġba": 2369,
      "Ġbat": 2370,
      "Ġband": 2371,
      "erry": 2372,
      "Ġpizz": 2373,
      "arra": 2374,
      "iddle": 2375,
      "amed": 2376,
      "Ġshirt": 2377,
      "Ġwhist": 2378,
      "Ġcovered": 2379,
      "Ġprot": 2380,
      "itement": 2381,
      "Ġtrust": 2382,
      "Ġorgan": 2383,
      "blem": 2384,
      "Ġapples": 2385,
      "Ġwaiting": 2386,
      "Ġdirt": 2387,
      "Ġanswer": 2388,
      "Ġembarra": 2389,
      "pa": 2390,
      "ten": 2391,
      "Ġtape": 2392,
      "Ġthese": 2393,
      "Ġbone": 2394,
      "Ġblew": 2395,
      "Ġfountain": 2396,
      "Ġcab": 2397,
      "ano": 2398,
      "ones": 2399,
      "Ġspo": 2400,
      "Ġfeather": 2401,
      "Ġexcitement": 2402,
      "Ġcoin": 2403,
      "Ġchew": 2404,
      "Ġcheese": 2405,
      "Joe": 2406,
      "Ġpretended": 2407,
      "Ġfurry": 2408,
      "Ġstudy": 2409,
      "Ġmatter": 2410,
      "Ġproblem": 2411,
      "Ġhealthy": 2412,
      "Ġgift": 2413,
      "Ġtrouble": 2414,
      "Ġreturned": 2415,
      "Ġprotect": 2416,
      "Ġcabin": 2417,
      "Sally": 2418,
      "Where": 2419,
      "Ġwide": 2420,
      "Ġbal": 2421,
      "read": 2422,
      "Ġlater": 2423,
      "Ġwash": 2424,
      "Ġmind": 2425,
      "Ġmach": 2426,
      "enry": 2427,
      "Ġstep": 2428,
      "Ġstream": 2429,
      "els": 2430,
      "Ġweak": 2431,
      "Ġweek": 2432,
      "Ġkitty": 2433,
      "aser": 2434,
      "Ġchair": 2435,
      "ĠSammy": 2436,
      "ipe": 2437,
      "usie": 2438,
      "Ġhidden": 2439,
      "Ġtightly": 2440,
      "Ġpaw": 2441,
      "Ġmysterious": 2442,
      "Ġrecord": 2443,
      "ĠSometimes": 2444,
      "Ġtest": 2445,
      "Ġsoup": 2446,
      "Ġfis": 2447,
      "ĠTV": 2448,
      "Ġsaf": 2449,
      "Ġnest": 2450,
      "Ġwearing": 2451,
      "Ġkay": 2452,
      "Ġreg": 2453,
      "Ġspread": 2454,
      "Ġknocked": 2455,
      "Ġlast": 2456,
      "Ġchoc": 2457,
      "Ġval": 2458,
      "Ġanyone": 2459,
      "ĠPolly": 2460,
      "Ġtalked": 2461,
      "olate": 2462,
      "Ġtaste": 2463,
      "Ġtrip": 2464,
      "Ġthankful": 2465,
      "Ġmighty": 2466,
      "Ġcouch": 2467,
      "Ġpeaceful": 2468,
      "ophie": 2469,
      "Ġtidy": 2470,
      "Ġchocolate": 2471,
      "Please": 2472,
      "gy": 2473,
      "Ġtak": 2474,
      "Ġsour": 2475,
      "Ġself": 2476,
      "Ġcow": 2477,
      "arp": 2478,
      "Ġgas": 2479,
      "ener": 2480,
      "orn": 2481,
      "lla": 2482,
      "ĠHow": 2483,
      "oof": 2484,
      "Ġforward": 2485,
      "unk": 2486,
      "Ġsharp": 2487,
      "ĠMum": 2488,
      "ĠMittens": 2489,
      "Ġanc": 2490,
      "Ġbrush": 2491,
      "Ġscre": 2492,
      "ella": 2493,
      "Ġpean": 2494,
      "act": 2495,
      "Ġsnee": 2496,
      "Ġremind": 2497,
      "Ġgrew": 2498,
      "Sarah": 2499,
      "Ġmessy": 2500,
      "Ġcrayon": 2501,
      "Ġpolice": 2502,
      "Ġdisappeared": 2503,
      "ĠMrs": 2504,
      "Ġcrab": 2505,
      "Ġcolourful": 2506,
      "Ġtomorrow": 2507,
      "Ġpizza": 2508,
      "Ġembarrassed": 2509,
      "To": 2510,
      "land": 2511,
      "per": 2512,
      "ĠOn": 2513,
      "Ġsuc": 2514,
      "Ġwra": 2515,
      "Ġlay": 2516,
      "Ġline": 2517,
      "Ġhears": 2518,
      "Ġpurse": 2519,
      "Ġgho": 2520,
      "Ġgener": 2521,
      "ides": 2522,
      "ating": 2523,
      "Ġstuff": 2524,
      "Ġshelf": 2525,
      "Ġboard": 2526,
      "ĠJim": 2527,
      "Ġseat": 2528,
      "Ġputs": 2529,
      "Ġbecome": 2530,
      "Ġskipped": 2531,
      "Ġord": 2532,
      "Ġfrown": 2533,
      "Soon": 2534,
      "Ġimpre": 2535,
      "Ġunus": 2536,
      "aughter": 2537,
      "ola": 2538,
      "Ġunderstood": 2539,
      "Ġcreative": 2540,
      "Ġfighting": 2541,
      "Ġstanding": 2542,
      "Ġbounc": 2543,
      "Ġcirc": 2544,
      "Ġtaken": 2545,
      "Ġselfish": 2546,
      "Ġancient": 2547,
      "Ġghost": 2548,
      "Ġunusual": 2549,
      "Gra": 2550,
      "Mary": 2551,
      "up": 2552,
      "ĠNo": 2553,
      "Ġicy": 2554,
      "Ġlamp": 2555,
      "Ġcher": 2556,
      "Ġcart": 2557,
      "Ġcage": 2558,
      "Ġpar": 2559,
      "Ġpri": 2560,
      "eth": 2561,
      "ote": 2562,
      "Ġstret": 2563,
      "Ġfork": 2564,
      "Ġwhis": 2565,
      "als": 2566,
      "ĠMummy": 2567,
      "Ġclass": 2568,
      "ĠEven": 2569,
      "Ġflash": 2570,
      "Ġquest": 2571,
      "ache": 2572,
      "Ġglow": 2573,
      "Ġarrow": 2574,
      "Ġfinish": 2575,
      "Ġwrote": 2576,
      "Ġmonkey": 2577,
      "ult": 2578,
      "Ġminutes": 2579,
      "Ġbald": 2580,
      "Ġkayak": 2581,
      "Ġgenerous": 2582,
      "Me": 2583,
      "Ġtie": 2584,
      "inted": 2585,
      "Ġhel": 2586,
      "Ġdest": 2587,
      "Ġmiddle": 2588,
      "Ġnuts": 2589,
      "ete": 2590,
      "Their": 2591,
      "Ġisland": 2592,
      "Ġgoat": 2593,
      "Ġgoes": 2594,
      "Ġfeed": 2595,
      "Ġscr": 2596,
      "ĠWhy": 2597,
      "iff": 2598,
      "Ġbull": 2599,
      "Ġmole": 2600,
      "umpy": 2601,
      "Ġruined": 2602,
      "Ġcrack": 2603,
      "Ġaccept": 2604,
      "Ġsticks": 2605,
      "Ġsongs": 2606,
      "Ġbathroom": 2607,
      "Ġmatch": 2608,
      "Ġwagon": 2609,
      "Ġmarket": 2610,
      "Ġsandwich": 2611,
      "aw": 2612,
      "rated": 2613,
      "und": 2614,
      "Ġtag": 2615,
      "Ġwore": 2616,
      "Ġdull": 2617,
      "Ġpill": 2618,
      "orry": 2619,
      "irp": 2620,
      "There": 2621,
      "Ġjam": 2622,
      "Ġspider": 2623,
      "ĠEnd": 2624,
      "Ġtrue": 2625,
      "Ġcush": 2626,
      "Ġwolf": 2627,
      "Ġtrucks": 2628,
      "Ġrude": 2629,
      "Ġcookie": 2630,
      "Ġfixed": 2631,
      "ensive": 2632,
      "Ġpromise": 2633,
      "Ġpointing": 2634,
      "Ġanswered": 2635,
      "Ġexpensive": 2636,
      "Ġspeed": 2637,
      "ependable": 2638,
      "Ġsplashed": 2639,
      "Ġpuzzle": 2640,
      "Ġpuddle": 2641,
      "Be": 2642,
      "Sue": 2643,
      "Ġter": 2644,
      "Ġtaught": 2645,
      "Ġwom": 2646,
      "ery": 2647,
      "Ġdaughter": 2648,
      "Ġpin": 2649,
      "Ġoven": 2650,
      "isa": 2651,
      "Ġgun": 2652,
      "Ġnumber": 2653,
      "imp": 2654,
      "ork": 2655,
      "orant": 2656,
      "Ġplate": 2657,
      "ĠLittle": 2658,
      "acket": 2659,
      "Ġjacket": 2660,
      "Ġext": 2661,
      "Ġroad": 2662,
      "Ġwhenever": 2663,
      "Ġdogs": 2664,
      "osie": 2665,
      "osaur": 2666,
      "Ġstring": 2667,
      "Ġbrightly": 2668,
      "Ġwalks": 2669,
      "Ġsailor": 2670,
      "Ġbarked": 2671,
      "Ġplants": 2672,
      "umbled": 2673,
      "eterm": 2674,
      "Ġrelax": 2675,
      "Ġsearching": 2676,
      "ĠBrown": 2677,
      "Ġescape": 2678,
      "Ġwoman": 2679,
      "iable": 2680,
      "shing": 2681,
      "Ġtask": 2682,
      "Ġhon": 2683,
      "Ġdeterm": 2684,
      "Ġpas": 2685,
      "Ġpour": 2686,
      "Ġsave": 2687,
      "ory": 2688,
      "lex": 2689,
      "oose": 2690,
      "Ġstones": 2691,
      "Ġshape": 2692,
      "Ġseed": 2693,
      "ured": 2694,
      "icine": 2695,
      "Ġmeasure": 2696,
      "Ġfaces": 2697,
      "ife": 2698,
      "Ġexcitedly": 2699,
      "Ġchased": 2700,
      "Ġdecor": 2701,
      "ĠFred": 2702,
      "ÅĵLet": 2703,
      "Ġtea": 2704,
      "Ġtears": 2705,
      "ĠRosie": 2706,
      "Ġdrank": 2707,
      "Ġforgive": 2708,
      "Ġdinosaur": 2709,
      "ĠToday": 2710,
      "Ġobed": 2711,
      "Ġbubble": 2712,
      "Ġbubbles": 2713,
      "Ġreliable": 2714,
      "ĠTweety": 2715,
      "Ġgiggled": 2716,
      "Ġaccidentally": 2717,
      "Ġmedicine": 2718,
      "Ġflashlight": 2719,
      "Ġterri": 2720,
      "Ġpassed": 2721,
      "Well": 2722,
      "iant": 2723,
      "ipper": 2724,
      "mo": 2725,
      "old": 2726,
      "ointed": 2727,
      "port": 2728,
      "Ġaw": 2729,
      "Ġwaves": 2730,
      "ready": 2731,
      "Ġcand": 2732,
      "era": 2733,
      "Ġma": 2734,
      "Ġpil": 2735,
      "ird": 2736,
      "Ġsoap": 2737,
      "Ġoften": 2738,
      "Ġlock": 2739,
      "illiant": 2740,
      "Ġfear": 2741,
      "Ġalready": 2742,
      "Ġbrilliant": 2743,
      "Ġchain": 2744,
      "Ġfridge": 2745,
      "Ġrubbed": 2746,
      "Ġcrown": 2747,
      "Ġpainted": 2748,
      "Ġjog": 2749,
      "Ġleaf": 2750,
      "Ġtells": 2751,
      "Ġdrum": 2752,
      "Ġdancing": 2753,
      "Ġdiscovered": 2754,
      "Ġpacked": 2755,
      "Ġcrawled": 2756,
      "Ġignorant": 2757,
      "Ġneckl": 2758,
      "Stop": 2759,
      "Ġobedient": 2760,
      "How": 2761,
      "Sorry": 2762,
      "cream": 2763,
      "not": 2764,
      "Ġtig": 2765,
      "Ġav": 2766,
      "Ġadded": 2767,
      "Ġwis": 2768,
      "Ġboring": 2769,
      "Ġcard": 2770,
      "Ġcurt": 2771,
      "Ġple": 2772,
      "ilt": 2773,
      "ilty": 2774,
      "ately": 2775,
      "ĠSusie": 2776,
      "ana": 2777,
      "imed": 2778,
      "oop": 2779,
      "Ġsock": 2780,
      "Ġliz": 2781,
      "Ġdolp": 2782,
      "Ġsell": 2783,
      "Ġload": 2784,
      "Ġjell": 2785,
      "Ġcannot": 2786,
      "Ġclay": 2787,
      "Ġnods": 2788,
      "getable": 2789,
      "ĠElly": 2790,
      "ĠDon": 2791,
      "ustrated": 2792,
      "Ġknowing": 2793,
      "Ġskin": 2794,
      "Ġskip": 2795,
      "Ġshowing": 2796,
      "ÅĵIt": 2797,
      "astic": 2798,
      "Ġcalling": 2799,
      "berry": 2800,
      "Ġrub": 2801,
      "Ġsounded": 2802,
      "Ġgiving": 2803,
      "Ġvegetable": 2804,
      "Ġwalls": 2805,
      "ĠJenny": 2806,
      "Ġbuilding": 2807,
      "Ġguilty": 2808,
      "Ġlanded": 2809,
      "Ġdisappointed": 2810,
      "Ġrepe": 2811,
      "Ġincred": 2812,
      "Ġmistake": 2813,
      "Ġmachine": 2814,
      "Ġfishing": 2815,
      "Ġextra": 2816,
      "Ġcurtain": 2817,
      "Ġjelly": 2818,
      "Amy": 2819,
      "ipping": 2820,
      "sel": 2821,
      "sist": 2822,
      "ub": 2823,
      "zed": 2824,
      "Ġadd": 2825,
      "Ġfil": 2826,
      "Ġcri": 2827,
      "erv": 2828,
      "Ġdiz": 2829,
      "Ġmot": 2830,
      "ĠSophie": 2831,
      "anged": 2832,
      "ĠHenry": 2833,
      "Ġears": 2834,
      "ĠLe": 2835,
      "illie": 2836,
      "opus": 2837,
      "Ġmanag": 2838,
      "Ġalmo": 2839,
      "Ġmeant": 2840,
      "Ġrose": 2841,
      "Ġlaund": 2842,
      "Ġgets": 2843,
      "Ġpear": 2844,
      "Ġpush": 2845,
      "Ġpicking": 2846,
      "Ġdrew": 2847,
      "ctopus": 2848,
      "Ġfrustrated": 2849,
      "ĠBobby": 2850,
      "Ġrubb": 2851,
      "Ġdead": 2852,
      "Ġjoke": 2853,
      "Ġprince": 2854,
      "Ġsmoke": 2855,
      "Ġjew": 2856,
      "Ġsupp": 2857,
      "Ġmixed": 2858,
      "Ġimagined": 2859,
      "Ġbutton": 2860,
      "Ġfinger": 2861,
      "Ġcomfortable": 2862,
      "ÅĵLetÃ¢": 2863,
      "selves": 2864,
      "Ġdizzy": 2865,
      "Ġalmost": 2866,
      "Ġlaundry": 2867,
      "af": 2868,
      "work": 2869,
      "Ġed": 2870,
      "Ġind": 2871,
      "Ġsight": 2872,
      "Ġwip": 2873,
      "Ġwitch": 2874,
      "ination": 2875,
      "Ġhoney": 2876,
      "erp": 2877,
      "Ġmill": 2878,
      "Ġmic": 2879,
      "Ġmama": 2880,
      "Ġmissed": 2881,
      "Ġpop": 2882,
      "Ġok": 2883,
      "Ġoctopus": 2884,
      "Ġnerv": 2885,
      "ĠSn": 2886,
      "Ġthick": 2887,
      "Ġbees": 2888,
      "Ġstumbled": 2889,
      "Ġonce": 2890,
      "Ġlive": 2891,
      "Ġkissed": 2892,
      "Ġgold": 2893,
      "Ġcloth": 2894,
      "Ġfluffy": 2895,
      "ecially": 2896,
      "Ġmoving": 2897,
      "Ġtwist": 2898,
      "angle": 2899,
      "bby": 2900,
      "Ġsmaller": 2901,
      "Ġclear": 2902,
      "Ġteeth": 2903,
      "Ġhurts": 2904,
      "ĠPlease": 2905,
      "ĠGo": 2906,
      "Ġprint": 2907,
      "Ġshoot": 2908,
      "Ġhorn": 2909,
      "Ġmetal": 2910,
      "Ġguard": 2911,
      "Ġbarber": 2912,
      "Ġneighbour": 2913,
      "Ġhappening": 2914,
      "Ġsnacks": 2915,
      "Ġtreats": 2916,
      "Ġdelighted": 2917,
      "Ġsolve": 2918,
      "Ġbalance": 2919,
      "Ġregular": 2920,
      "Ġterrible": 2921,
      "Ġnecklace": 2922,
      "Ġdolphin": 2923,
      "Ġvegetables": 2924,
      "Ġincredible": 2925,
      "Ġmanaged": 2926,
      "Ġnervous": 2927,
      "mp": 2928,
      "mith": 2929,
      "pecially": 2930,
      "ror": 2931,
      "yer": 2932,
      "ying": 2933,
      "heart": 2934,
      "Ġtummy": 2935,
      "Ġsil": 2936,
      "Ġbored": 2937,
      "Ġtoug": 2938,
      "Ġcoo": 2939,
      "Ġcone": 2940,
      "erly": 2941,
      "Ġdependable": 2942,
      "Ġpir": 2943,
      "ense": 2944,
      "Ġsal": 2945,
      "ĠSandy": 2946,
      "Ġrich": 2947,
      "keep": 2948,
      "elp": 2949,
      "itter": 2950,
      "ĠBl": 2951,
      "Ġshone": 2952,
      "Ġsharing": 2953,
      "Ġboss": 2954,
      "Ġbody": 2955,
      "illar": 2956,
      "urch": 2957,
      "Ġleg": 2958,
      "Ġnod": 2959,
      "Ġsciss": 2960,
      "asing": 2961,
      "Ġword": 2962,
      "Ġagainst": 2963,
      "Ġlazy": 2964,
      "Ġabove": 2965,
      "Ġvase": 2966,
      "Ġcaterp": 2967,
      "Ġmov": 2968,
      "Ġexplored": 2969,
      "Ġeng": 2970,
      "Ġpicks": 2971,
      "Ġcheck": 2972,
      "Ġkinds": 2973,
      "Ġsniff": 2974,
      "ĠPete": 2975,
      "Ġrushed": 2976,
      "Ġyelled": 2977,
      "Ġdrawing": 2978,
      "Ġtriangle": 2979,
      "Ġveil": 2980,
      "Ġjuicy": 2981,
      "Ġespecially": 2982,
      "Ġbelonged": 2983,
      "Ġfootball": 2984,
      "Ġflute": 2985,
      "Ġfeathers": 2986,
      "Ġpeanut": 2987,
      "Ġsuccess": 2988,
      "Ġdetermined": 2989,
      "Ġtiger": 2990,
      "Ġlizard": 2991,
      "keeper": 2992,
      "Ġscissors": 2993,
      "Ġcaterpillar": 2994,
      "Help": 2995,
      "ah": 2996,
      "ded": 2997,
      "loo": 2998,
      "lower": 2999,
      "pack": 3000,
      "rn": 3001,
      "ĠO": 3002,
      "Ġtick": 3003,
      "Ġant": 3004,
      "ndpa": 3005,
      "Ġfu": 3006,
      "ital": 3007,
      "Ġmir": 3008,
      "Ġsaved": 3009,
      "ĠSmith": 3010,
      "Ġemp": 3011,
      "Ġroof": 3012,
      "Ġbeg": 3013,
      "ĠLisa": 3014,
      "ention": 3015,
      "ugar": 3016,
      "urous": 3017,
      "?\".": 3018,
      "Ġleash": 3019,
      "Ġlegs": 3020,
      "Ġexcla": 3021,
      "ief": 3022,
      "Ġcoat": 3023,
      "Ġchose": 3024,
      "Ġvi": 3025,
      "Ġvide": 3026,
      "Ġbloom": 3027,
      "Ġhosp": 3028,
      "Ġpole": 3029,
      "Ġteam": 3030,
      "âĤ¬âĢ": 3031,
      "Ġadventurous": 3032,
      "ĠPeter": 3033,
      "Ġcrane": 3034,
      "Ġsquee": 3035,
      "Ġsweetheart": 3036,
      "Ġcontent": 3037,
      "Ġdelicate": 3038,
      "Ġducks": 3039,
      "Ġpolite": 3040,
      "Ġbounce": 3041,
      "Ġcarrots": 3042,
      "Ġraced": 3043,
      "ĠAlice": 3044,
      "Ġashamed": 3045,
      "Ġserious": 3046,
      "Ġlawyer": 3047,
      "Ġcircles": 3048,
      "Ġmotor": 3049,
      "Ġtough": 3050,
      "Ġempty": 3051,
      "Ġexclaimed": 3052,
      "Ġhospital": 3053,
      "Al": 3054,
      "bled": 3055,
      "fic": 3056,
      "fish": 3057,
      "hip": 3058,
      "iest": 3059,
      "lies": 3060,
      "rank": 3061,
      "Ġsugar": 3062,
      "Ġhi": 3063,
      "Ġmaybe": 3064,
      "owy": 3065,
      "Ġking": 3066,
      "Ġref": 3067,
      "ugged": 3068,
      "Ġlog": 3069,
      "Ġlean": 3070,
      "Ġlead": 3071,
      "Ġleak": 3072,
      "Ġboys": 3073,
      "Ġfactor": 3074,
      "Ġchurch": 3075,
      "Ġvine": 3076,
      "Ġyourself": 3077,
      "nny": 3078,
      "Ġmod": 3079,
      "Ġstranger": 3080,
      "ÅĵYes": 3081,
      "Ġsorts": 3082,
      "inky": 3083,
      "Ġneeds": 3084,
      "Ġharder": 3085,
      "Ġsquare": 3086,
      "olog": 3087,
      "Ġperform": 3088,
      "Ġtrick": 3089,
      "oomy": 3090,
      "airs": 3091,
      "Ġthread": 3092,
      "Ġdiscover": 3093,
      "Ġtunn": 3094,
      "Ġharm": 3095,
      "Ġeasy": 3096,
      "Ġcheerful": 3097,
      "Ġsafely": 3098,
      "Ġgasped": 3099,
      "Ġimpressed": 3100,
      "Ġdestro": 3101,
      "Ġmirror": 3102,
      "Ġfactory": 3103,
      "Billy": 3104,
      "Who": 3105,
      "apping": 3106,
      "hood": 3107,
      "ibb": 3108,
      "Ġtimes": 3109,
      "iness": 3110,
      "inary": 3111,
      "Ġborrow": 3112,
      "Ġfan": 3113,
      "Ġcact": 3114,
      "Ġpay": 3115,
      "ature": 3116,
      "imney": 3117,
      "etit": 3118,
      "Ġeg": 3119,
      "Ġshell": 3120,
      "amond": 3121,
      "Ġlicked": 3122,
      "ĠMar": 3123,
      "tern": 3124,
      "ĠJames": 3125,
      "Ġspend": 3126,
      "Ġnoisy": 3127,
      "Ġchange": 3128,
      "Ġchimney": 3129,
      "Ġbuilt": 3130,
      "ĠFin": 3131,
      "Ġpoor": 3132,
      "oby": 3133,
      "Ġlearning": 3134,
      "Ġgray": 3135,
      "Ġgrown": 3136,
      "Ġgrumpy": 3137,
      "Ġglass": 3138,
      "Ġwarned": 3139,
      "Ġcleaned": 3140,
      "Ġrealised": 3141,
      "Ġdiffic": 3142,
      "Ġleaving": 3143,
      "ĠRe": 3144,
      "Ġfloated": 3145,
      "Ġzoo": 3146,
      "Ġzeb": 3147,
      "Ġtries": 3148,
      "Ġvend": 3149,
      "Ġmarch": 3150,
      "Ġcompass": 3151,
      "Ġcompetit": 3152,
      "Ġwagged": 3153,
      "Ġbottom": 3154,
      "Ġshopkeeper": 3155,
      "ĠTweetie": 3156,
      "Ġpractice": 3157,
      "Ġapolog": 3158,
      "Ġtuna": 3159,
      "Ġwheel": 3160,
      "Ġdiamond": 3161,
      "Ġquestions": 3162,
      "Ġmaze": 3163,
      "Ġwishes": 3164,
      "ĠSnowy": 3165,
      "Ġengine": 3166,
      "Ġdestroy": 3167,
      "Ġcactus": 3168,
      "Ġzebra": 3169,
      "cano": 3170,
      "fast": 3171,
      "lcano": 3172,
      "oe": 3173,
      "Ġer": 3174,
      "ina": 3175,
      "ines": 3176,
      "ince": 3177,
      "Ġhook": 3178,
      "Ġhurry": 3179,
      "ĠTr": 3180,
      "aroo": 3181,
      "Ġham": 3182,
      "ots": 3183,
      "Ġstamp": 3184,
      "ents": 3185,
      "Ġshark": 3186,
      "Ġkang": 3187,
      "illed": 3188,
      "indy": 3189,
      "Ġsaying": 3190,
      "Ġbridge": 3191,
      "ĠElla": 3192,
      "Ġmuff": 3193,
      "Ġchoose": 3194,
      "Ġdecide": 3195,
      "apa": 3196,
      "ÅĵThat": 3197,
      "emo": 3198,
      "Ġcloset": 3199,
      "Ġloudly": 3200,
      "ĠWhenever": 3201,
      "Ġframe": 3202,
      "Ġvolcano": 3203,
      "Ġpainting": 3204,
      "Ġusing": 3205,
      "Ġdoesn": 3206,
      "Ġfavour": 3207,
      "Ġpattern": 3208,
      "Ġbreakfast": 3209,
      "Ġadmire": 3210,
      "Ġinvited": 3211,
      "Ġedge": 3212,
      "Ġbossy": 3213,
      "Ġdifficult": 3214,
      "Ġvendor": 3215,
      "Ġkangaroo": 3216,
      "Em": 3217,
      "iv": 3218,
      "iqu": 3219,
      "Ġtank": 3220,
      "Ġsy": 3221,
      "Ġsighed": 3222,
      "Ġbake": 3223,
      "Ġlying": 3224,
      "Ġcries": 3225,
      "Ġmask": 3226,
      "Ġpad": 3227,
      "iding": 3228,
      "Ġsauce": 3229,
      "Ġthief": 3230,
      "Ġeld": 3231,
      "Ġur": 3232,
      "Ġrug": 3233,
      "ĠLola": 3234,
      "Ġplayful": 3235,
      "ĠMark": 3236,
      "ĠMillie": 3237,
      "Ġsport": 3238,
      "Ġclock": 3239,
      "Ġagree": 3240,
      "Ġworking": 3241,
      "Ġcover": 3242,
      "Ġpebb": 3243,
      "Ġpeek": 3244,
      "ÅĵWhat": 3245,
      "Ġnicely": 3246,
      "Ġboxes": 3247,
      "ĠdonÃ¢": 3248,
      "Ġsnake": 3249,
      "Ġeye": 3250,
      "Ġunl": 3251,
      "Ġuniqu": 3252,
      "Ġenjoying": 3253,
      "Ġtowel": 3254,
      "Ġbutterflies": 3255,
      "Ġlights": 3256,
      "Ġcorn": 3257,
      "Ġpackage": 3258,
      "uggled": 3259,
      "Ġspray": 3260,
      "Ġmailbox": 3261,
      "Ġearly": 3262,
      "Ġpracticed": 3263,
      "Ġlemonade": 3264,
      "Ġdesk": 3265,
      "Ġshrimp": 3266,
      "Ġwhistle": 3267,
      "Ġscreen": 3268,
      "Ġordinary": 3269,
      "Ġcushion": 3270,
      "Ġpleased": 3271,
      "Ġwiped": 3272,
      "Ġpirate": 3273,
      "Ġmovie": 3274,
      "Ġviol": 3275,
      "Ġtunnel": 3276,
      "Ġeraser": 3277,
      "Ġfavourite": 3278,
      "Ġunique": 3279,
      "Jill": 3280,
      "Little": 3281,
      "cil": 3282,
      "ext": 3283,
      "gu": 3284,
      "ging": 3285,
      "pet": 3286,
      "pered": 3287,
      "head": 3288,
      "Ġtent": 3289,
      "Ġturt": 3290,
      "inal": 3291,
      "Ġbump": 3292,
      "Ġbitter": 3293,
      "Ġfake": 3294,
      "Ġfather": 3295,
      "Ġfrag": 3296,
      "Ġled": 3297,
      "Ġdish": 3298,
      "Ġpalm": 3299,
      "orge": 3300,
      "iron": 3301,
      "iginal": 3302,
      "Ġrice": 3303,
      "Ġrough": 3304,
      "Ġshine": 3305,
      "Ġship": 3306,
      "Ġwhale": 3307,
      "rage": 3308,
      "ict": 3309,
      "âĤ¬.": 3310,
      "Ġknife": 3311,
      "Ġclum": 3312,
      "Ġbranc": 3313,
      "ĠWhile": 3314,
      "Ġcarpet": 3315,
      "ested": 3316,
      "Ġchase": 3317,
      "Ġfinding": 3318,
      "Ġtrade": 3319,
      "Ġtrunk": 3320,
      "Ġpee": 3321,
      "ĠEverything": 3322,
      "aul": 3323,
      "Ġoriginal": 3324,
      "Ġneedle": 3325,
      "Ġkindness": 3326,
      "Ġfamous": 3327,
      "Ġpainter": 3328,
      "Ġmagn": 3329,
      "ĠNemo": 3330,
      "Ġtrap": 3331,
      "Ġgiven": 3332,
      "Ġsplit": 3333,
      "Ġballoons": 3334,
      "Ġpencil": 3335,
      "Ġhung": 3336,
      "Ġsparkled": 3337,
      "Ġfruits": 3338,
      "Ġtreasures": 3339,
      "Ġcircle": 3340,
      "Ġspinning": 3341,
      "ependent": 3342,
      "Ġcelebrate": 3343,
      "Ġbuttons": 3344,
      "Ġthinking": 3345,
      "Grandma": 3346,
      "Ġparade": 3347,
      "Ġwhispered": 3348,
      "Ġjewel": 3349,
      "Ġindependent": 3350,
      "Ġfuel": 3351,
      "Ġcompassion": 3352,
      "Ġviolin": 3353,
      "Ġturtle": 3354,
      "Ġfragile": 3355,
      "Ġbranches": 3356,
      "cage": 3357,
      "ches": 3358,
      "hnny": 3359,
      "pe": 3360,
      "par": 3361,
      "time": 3362,
      "vice": 3363,
      "yster": 3364,
      "zor": 3365,
      "Ġsugg": 3366,
      "Ġsize": 3367,
      "Ġwire": 3368,
      "Ġhoop": 3369,
      "Ġwand": 3370,
      "Ġwake": 3371,
      "Ġfool": 3372,
      "Ġcree": 3373,
      "erc": 3374,
      "Ġmay": 3375,
      "Ġoyster": 3376,
      "Ġgate": 3377,
      "Ġnail": 3378,
      "Ġyog": 3379,
      "ĠIf": 3380,
      "Ġshake": 3381,
      "Ġshocked": 3382,
      "alk": 3383,
      "aled": 3384,
      "ĠMy": 3385,
      "!\".": 3386,
      "Ġlocked": 3387,
      "ĠAt": 3388,
      "Ġthemselves": 3389,
      "icop": 3390,
      "Ġroar": 3391,
      "Ġrode": 3392,
      "Ġbirdcage": 3393,
      "ellig": 3394,
      "rosc": 3395,
      "Ġcho": 3396,
      "ĠDanny": 3397,
      "Ġintellig": 3398,
      "Ġmoder": 3399,
      "Ġanywhere": 3400,
      "Ġslipped": 3401,
      "ĠPapa": 3402,
      "Ġcrow": 3403,
      "Ġsteal": 3404,
      "Ġmessage": 3405,
      "Ġdrop": 3406,
      "Ġhairy": 3407,
      "Ġlaughs": 3408,
      "Ġbiggest": 3409,
      "ĠGrandpa": 3410,
      "Ġcounted": 3411,
      "Ġsecond": 3412,
      "Ġattic": 3413,
      "Ġsub": 3414,
      "Ġrazor": 3415,
      "Ġpersist": 3416,
      "Ġpastry": 3417,
      "Ġspring": 3418,
      "Ġcourage": 3419,
      "Ġminute": 3420,
      "Ġcelebrated": 3421,
      "Ġchicken": 3422,
      "Ġchickens": 3423,
      "Ġspoke": 3424,
      "Ġvalu": 3425,
      "Ġreminded": 3426,
      "achel": 3427,
      "Ġhelicop": 3428,
      "Ġmicrosc": 3429,
      "Ġhammer": 3430,
      "Ġelderly": 3431,
      "Ġclumsy": 3432,
      "Ġpeeked": 3433,
      "Ġfoolish": 3434,
      "Ġmodern": 3435,
      "Ġhelicopter": 3436,
      "Ġmicroscope": 3437,
      "Ch": 3438,
      "See": 3439,
      "bor": 3440,
      "gust": 3441,
      "loe": 3442,
      "night": 3443,
      "ron": 3444,
      "wards": 3445,
      "xe": 3446,
      "zing": 3447,
      "Ġahead": 3448,
      "Ġaxe": 3449,
      "Ġsudden": 3450,
      "Ġbent": 3451,
      "Ġbark": 3452,
      "Ġhay": 3453,
      "Ġhunt": 3454,
      "Ġfour": 3455,
      "Ġcell": 3456,
      "Ġdig": 3457,
      "Ġped": 3458,
      "Ġpow": 3459,
      "ĠToby": 3460,
      "anic": 3461,
      "Ġbeet": 3462,
      "Ġstraw": 3463,
      "Ġsheep": 3464,
      "Ġweather": 3465,
      "une": 3466,
      "seum": 3467,
      "Ġresc": 3468,
      "Ġloops": 3469,
      "Ġsepar": 3470,
      "uring": 3471,
      "Ġcane": 3472,
      "Ġstarts": 3473,
      "ĠEventually": 3474,
      "Ġchanged": 3475,
      "Ġprep": 3476,
      "Ġener": 3477,
      "Ġenorm": 3478,
      "Ġcompl": 3479,
      "Here": 3480,
      "Ġending": 3481,
      "Ġclosely": 3482,
      "Ġdisgust": 3483,
      "Ġturkey": 3484,
      "Ġtravel": 3485,
      "Ġuseful": 3486,
      "Ġzip": 3487,
      "Ġsleeping": 3488,
      "Ġvisited": 3489,
      "Ġreading": 3490,
      "Ġbushes": 3491,
      "Ġraft": 3492,
      "umbers": 3493,
      "Ġcrawl": 3494,
      "Ġtroubled": 3495,
      "Ġrepair": 3496,
      "Ġlifted": 3497,
      "Ġharbor": 3498,
      "Ġdistance": 3499,
      "Ġwandered": 3500,
      "Ġfrowned": 3501,
      "ÅĵItÃ¢": 3502,
      "Ġcurtains": 3503,
      "Ġvideo": 3504,
      "Alice": 3505,
      "Ġmagnet": 3506,
      "Ġcreek": 3507,
      "Ġintelligent": 3508,
      "Ġsubway": 3509,
      "Ġpersistent": 3510,
      "Ġvaluable": 3511,
      "Ġenormous": 3512,
      "Jim": 3513,
      "Re": 3514,
      "eorge": 3515,
      "ject": 3516,
      "kin": 3517,
      "sing": 3518,
      "yal": 3519,
      "ĠU": 3520,
      "Ġiron": 3521,
      "Ġtem": 3522,
      "Ġtied": 3523,
      "inked": 3524,
      "Ġber": 3525,
      "Ġcap": 3526,
      "eri": 3527,
      "Ġmap": 3528,
      "Ġpit": 3529,
      "Ġnumbers": 3530,
      "Ġsheet": 3531,
      "adi": 3532,
      "Ġhadn": 3533,
      "Ġweighed": 3534,
      "Ġweird": 3535,
      "Ġmoms": 3536,
      "Ġlibr": 3537,
      "Ġlose": 3538,
      "Ġjolly": 3539,
      "Ġspade": 3540,
      "Ġspace": 3541,
      "ĠAnn": 3542,
      "ĠAlex": 3543,
      "iches": 3544,
      "Ġallowed": 3545,
      "Ġleop": 3546,
      "Ġalert": 3547,
      "ages": 3548,
      "iew": 3549,
      "Ġmuseum": 3550,
      "Ġsadly": 3551,
      "Ġview": 3552,
      "Ġpray": 3553,
      "ĠDave": 3554,
      "Ġolder": 3555,
      "Ġyours": 3556,
      "Ġenv": 3557,
      "Ġshows": 3558,
      "Ġadvice": 3559,
      "Ġcomb": 3560,
      "Ġways": 3561,
      "Ġcolours": 3562,
      "ips": 3563,
      "Ġdishes": 3564,
      "Ġclimbing": 3565,
      "Ġsquash": 3566,
      "Ġtelling": 3567,
      "Ġstickers": 3568,
      "Ġdriving": 3569,
      "Ġdreamed": 3570,
      "Ġdreaming": 3571,
      "Ġwindows": 3572,
      "Ġbags": 3573,
      "Ġmarble": 3574,
      "Ġsparkling": 3575,
      "Ġpale": 3576,
      "Ġmixer": 3577,
      "Ġgifted": 3578,
      "laire": 3579,
      "Ġsandwiches": 3580,
      "Ġletters": 3581,
      "Everyone": 3582,
      "Ġbatter": 3583,
      "Ġwrapped": 3584,
      "Ġhonest": 3585,
      "Ġpilot": 3586,
      "Ġrubber": 3587,
      "Ġsalad": 3588,
      "ĠBlue": 3589,
      "Ġpebble": 3590,
      "Ġsuggested": 3591,
      "Ġbeetle": 3592,
      "Ġberries": 3593,
      "Ġleopard": 3594,
      "\",": 3595,
      "By": 3596,
      "If": 3597,
      "fa": 3598,
      "nit": 3599,
      "ray": 3600,
      "ses": 3601,
      "Ġten": 3602,
      "Ġsum": 3603,
      "Ġberry": 3604,
      "resh": 3605,
      "Ġfresh": 3606,
      "Ġcam": 3607,
      "Ġdough": 3608,
      "Ġmis": 3609,
      "Ġmelt": 3610,
      "Ġpine": 3611,
      "Ġpipe": 3612,
      "ison": 3613,
      "ision": 3614,
      "Ġgum": 3615,
      "atient": 3616,
      "Ġrare": 3617,
      "Ġbeep": 3618,
      "Ġstack": 3619,
      "ppo": 3620,
      "Ġsold": 3621,
      "Ġsofa": 3622,
      "Ġplastic": 3623,
      "addy": 3624,
      "una": 3625,
      "ĠBella": 3626,
      "Ġshut": 3627,
      "Ġnote": 3628,
      "Ġloyal": 3629,
      "Ġtool": 3630,
      "Ġspun": 3631,
      "Ġexerc": 3632,
      "ices": 3633,
      "Ġclap": 3634,
      "Ġscale": 3635,
      "Ġsomewhere": 3636,
      "ĠWhere": 3637,
      "Ġcost": 3638,
      "Ġvan": 3639,
      "Ġvest": 3640,
      "Ġblinked": 3641,
      "Ġgrace": 3642,
      "ĠFrank": 3643,
      "Ġballs": 3644,
      "Ġhanded": 3645,
      "Ġoffice": 3646,
      "Ġbeauty": 3647,
      "Ġcube": 3648,
      "Ġglue": 3649,
      "Ġart": 3650,
      "ctive": 3651,
      "ĠGive": 3652,
      "Ġimpro": 3653,
      "Ġimpatient": 3654,
      "Ġrules": 3655,
      "Ġuniver": 3656,
      "ngth": 3657,
      "Ġjokes": 3658,
      "Ġdreams": 3659,
      "Ġfurnit": 3660,
      "Ġcounting": 3661,
      "Ġcomput": 3662,
      "Ġquietly": 3663,
      "mbol": 3664,
      "Ġstrength": 3665,
      "Ġprov": 3666,
      "Ġspeak": 3667,
      "ĠChloe": 3668,
      "Ġmissile": 3669,
      "Ġadmired": 3670,
      "Ġfolder": 3671,
      "Ġpassport": 3672,
      "Ġringing": 3673,
      "Ġspoil": 3674,
      "Ġcherry": 3675,
      "Ġcartoon": 3676,
      "Ġprize": 3677,
      "Ġstretch": 3678,
      "Ġsuccessful": 3679,
      "âĤ¬âĢľ": 3680,
      "Ġhippo": 3681,
      "Ġrefre": 3682,
      "Ġharmless": 3683,
      "Ġsymbol": 3684,
      "Ġdisgusting": 3685,
      "Ġcamera": 3686,
      "Ġfurniture": 3687,
      "'.": 3688,
      "Give": 3689,
      "Sp": 3690,
      "cense": 3691,
      "eath": 3692,
      "ffe": 3693,
      "hic": 3694,
      "lu": 3695,
      "lid": 3696,
      "med": 3697,
      "ser": 3698,
      "uss": 3699,
      "year": 3700,
      "ĠZ": 3701,
      "ĠOK": 3702,
      "Ġtut": 3703,
      "Ġbase": 3704,
      "eros": 3705,
      "Ġmen": 3706,
      "Ġpand": 3707,
      "arlie": 3708,
      "atch": 3709,
      "ĠitÃ¢": 3710,
      "Ġrhin": 3711,
      "Ġbean": 3712,
      "Ġstared": 3713,
      "Ġstation": 3714,
      "ĠLuna": 3715,
      "Ġplayer": 3716,
      "Ġfort": 3717,
      "Ġlicense": 3718,
      "alley": 3719,
      "Ġrece": 3720,
      "Ġrefused": 3721,
      "umble": 3722,
      "Ġhelpless": 3723,
      "Ġstarting": 3724,
      "Ġmem": 3725,
      "Ġmeal": 3726,
      "Ġcoffe": 3727,
      "Ġmush": 3728,
      "Ġputting": 3729,
      "Ġchar": 3730,
      "Ġholid": 3731,
      "Ġtwig": 3732,
      "Ġpushing": 3733,
      "Ġenvel": 3734,
      "ĠJohnny": 3735,
      "Ġproudly": 3736,
      "bbie": 3737,
      "arsh": 3738,
      "Ġgloomy": 3739,
      "Ġboats": 3740,
      "Ġunpack": 3741,
      "irsty": 3742,
      "Ġdeaf": 3743,
      "ĠJoey": 3744,
      "Ġsweetie": 3745,
      "Ġtrash": 3746,
      "Ġtaller": 3747,
      "Ġhats": 3748,
      "Ġvehic": 3749,
      "ĠEmmy": 3750,
      "Ġmarry": 3751,
      "body": 3752,
      "Ġpatch": 3753,
      "Ġbeef": 3754,
      "Ġbelow": 3755,
      "Ġguess": 3756,
      "Ġpaid": 3757,
      "Ġsuitc": 3758,
      "oceros": 3759,
      "Ġobject": 3760,
      "Ġinclu": 3761,
      "Ġpowerful": 3762,
      "Ġorganized": 3763,
      "Ġclassroom": 3764,
      "Ġpillow": 3765,
      "Ġfearful": 3766,
      "Ġfilthy": 3767,
      "Ġcrib": 3768,
      "ĠLeo": 3769,
      "Ġeggs": 3770,
      "Ġenergy": 3771,
      "Ġlibrary": 3772,
      "Ġsummer": 3773,
      "Spot": 3774,
      "Ġrhinoceros": 3775,
      "Ġcoffee": 3776,
      "Ġmushroom": 3777,
      "Ġholiday": 3778,
      "Are": 3779,
      "Is": 3780,
      "Jen": 3781,
      "Would": 3782,
      "Will": 3783,
      "While": 3784,
      "Yay": 3785,
      "appy": 3786,
      "dge": 3787,
      "nam": 3788,
      "noon": 3789,
      "oot": 3790,
      "pid": 3791,
      "ues": 3792,
      "Ġtorn": 3793,
      "Ġhous": 3794,
      "Ġwaist": 3795,
      "Ġlid": 3796,
      "Ġlow": 3797,
      "Ġcop": 3798,
      "Ġcase": 3799,
      "erable": 3800,
      "Ġoats": 3801,
      "omed": 3802,
      "ari": 3803,
      "ising": 3804,
      "atter": 3805,
      "Ġnature": 3806,
      "ĠSh": 3807,
      "Ġitself": 3808,
      "Ġthirsty": 3809,
      "Ġherb": 3810,
      "Ġyet": 3811,
      "Ġribb": 3812,
      "Ġbeak": 3813,
      "Ġstri": 3814,
      "ĠIs": 3815,
      "ĠIÃ¢": 3816,
      "riage": 3817,
      "Ġweep": 3818,
      "Ġresist": 3819,
      "Ġnotice": 3820,
      "ecause": 3821,
      "ĠJu": 3822,
      "Ġspilled": 3823,
      "Ġnosy": 3824,
      "Ġscare": 3825,
      "Ġscoot": 3826,
      "ĠWould": 3827,
      "Ġfauc": 3828,
      "Ġmule": 3829,
      "Ġchirp": 3830,
      "ĠDucky": 3831,
      "Ġfinds": 3832,
      "Ġpopped": 3833,
      "Ġpoppy": 3834,
      "Ġtray": 3835,
      "Ġskipping": 3836,
      "Ġtwirl": 3837,
      "ĠcouldnÃ¢": 3838,
      "ĠJoy": 3839,
      "bborn": 3840,
      "Ġornam": 3841,
      "Ġoffered": 3842,
      "Ġgrin": 3843,
      "Ġsnuggled": 3844,
      "Ġdisag": 3845,
      "Ġafternoon": 3846,
      "ĠRed": 3847,
      "Ġzipper": 3848,
      "Ġrestaur": 3849,
      "Ġpetals": 3850,
      "Ġsett": 3851,
      "Ġpengu": 3852,
      "Ġfurther": 3853,
      "Ġmarried": 3854,
      "Ġcomplet": 3855,
      "Ġpiano": 3856,
      "Ġcupboard": 3857,
      "Ġstupid": 3858,
      "Ġstubborn": 3859,
      "Ġattra": 3860,
      "Ġobser": 3861,
      "Ġdiary": 3862,
      "Daddy": 3863,
      "Ġcows": 3864,
      "Together": 3865,
      "Ġcherries": 3866,
      "Ġstretched": 3867,
      "Ġrelaxed": 3868,
      "Ġseeds": 3869,
      "Ġpopular": 3870,
      "Ġneighbourhood": 3871,
      "Ġsniffed": 3872,
      "Ġleaned": 3873,
      "Ġenvious": 3874,
      "Ġmiserable": 3875,
      "Ġexercise": 3876,
      "Ġcomputer": 3877,
      "Ġtutor": 3878,
      "Ġhouses": 3879,
      "Ġfaucet": 3880,
      "Ġornaments": 3881,
      "Ġrestaurant": 3882,
      "'ve": 3883,
      "Daisy": 3884,
      "Ow": 3885,
      "aid": 3886,
      "ef": 3887,
      "flower": 3888,
      "low": 3889,
      "Ġig": 3890,
      "Ġtire": 3891,
      "Ġaunt": 3892,
      "Ġban": 3893,
      "Ġfat": 3894,
      "ither": 3895,
      "Ġcamp": 3896,
      "Ġdug": 3897,
      "Ġwashed": 3898,
      "Ġnorm": 3899,
      "ets": 3900,
      "etty": 3901,
      "Ġyach": 3902,
      "Ġrake": 3903,
      "Ġbears": 3904,
      "ric": 3905,
      "ado": 3906,
      "chanic": 3907,
      "Ġshiver": 3908,
      "Ġshadow": 3909,
      "Ġrequ": 3910,
      "Ġreef": 3911,
      "ĠMay": 3912,
      "ĠJerry": 3913,
      "Ġjet": 3914,
      "Ġspit": 3915,
      "fume": 3916,
      "arth": 3917,
      "icer": 3918,
      "Ġfriendship": 3919,
      "Ġknock": 3920,
      "Ġclown": 3921,
      "Ġbrus": 3922,
      "Ġmechanic": 3923,
      "ĠWill": 3924,
      "Ġworm": 3925,
      "Ġflag": 3926,
      "Ġchasing": 3927,
      "ucked": 3928,
      "Ġsunset": 3929,
      "Ġexplain": 3930,
      "Ġoffer": 3931,
      "Ġslid": 3932,
      "ĠCat": 3933,
      "Ġevening": 3934,
      "Ġbrace": 3935,
      "Ġteleph": 3936,
      "Ġarg": 3937,
      "Ġfright": 3938,
      "Ġshoulder": 3939,
      "ĠGary": 3940,
      "Ġbrighter": 3941,
      "Ġhoping": 3942,
      "Ġjoined": 3943,
      "Ġperfume": 3944,
      "Ġsandbox": 3945,
      "Ġlightning": 3946,
      "Ġbread": 3947,
      "ations": 3948,
      "Ġsquirrels": 3949,
      "ĠKate": 3950,
      "Ġrolling": 3951,
      "Ġbreaks": 3952,
      "Ġgrowing": 3953,
      "Ġstud": 3954,
      "Ġcollar": 3955,
      "Ġplaced": 3956,
      "Ġapart": 3957,
      "Ġapron": 3958,
      "Ġgiggle": 3959,
      "Ġkicked": 3960,
      "Ġsplashing": 3961,
      "Ġentered": 3962,
      "Ġexamine": 3963,
      "Ġorganize": 3964,
      "Ġsneeze": 3965,
      "Ġdecorate": 3966,
      "Ġcandle": 3967,
      "Ġshooting": 3968,
      "Ġcompetitive": 3969,
      "ĠTrue": 3970,
      "Ġcompassionate": 3971,
      "Ġcomplain": 3972,
      "Ġsuitcase": 3973,
      "Ġdisagreed": 3974,
      "Ġattractive": 3975,
      "Ġigloo": 3976,
      "Ġnormal": 3977,
      "Ġyacht": 3978,
      "Ġtelephone": 3979,
      "Because": 3980,
      "Go": 3981,
      "bers": 3982,
      "cc": 3983,
      "cy": 3984,
      "cou": 3985,
      "cast": 3986,
      "eople": 3987,
      "lara": 3988,
      "nie": 3989,
      "uz": 3990,
      "Ġsent": 3991,
      "Ġsend": 3992,
      "Ġwing": 3993,
      "edy": 3994,
      "Ġtooth": 3995,
      "Ġhut": 3996,
      "Ġlend": 3997,
      "Ġlaser": 3998,
      "Ġcudd": 3999,
      "erce": 4000,
      "Ġdra": 4001,
      "Ġdust": 4002,
      "Ġdess": 4003,
      "Ġmug": 4004,
      "Ġpump": 4005,
      "ĠTilly": 4006,
      "Ġthose": 4007,
      "Ġthumb": 4008,
      "iring": 4009,
      "ĠLook": 4010,
      "enty": 4011,
      "ĠBear": 4012,
      "Ġlick": 4013,
      "Ġhappens": 4014,
      "Ġhappiness": 4015,
      "Ġshort": 4016,
      "Ġshaking": 4017,
      "Ġreve": 4018,
      "Ġboots": 4019,
      "Ġseal": 4020,
      "ills": 4021,
      "urried": 4022,
      "ĠAbbie": 4023,
      "Ġknown": 4024,
      "Ġscar": 4025,
      "Ġscatter": 4026,
      "abel": 4027,
      "Ġcoins": 4028,
      "play": 4029,
      "Ġbuck": 4030,
      "Ġbury": 4031,
      "Ġtrop": 4032,
      "Ġtrump": 4033,
      "Ġsunflower": 4034,
      "Ġlearnt": 4035,
      "Ġpup": 4036,
      "ucture": 4037,
      "Ġquite": 4038,
      "Ġstructure": 4039,
      "ÅĵYou": 4040,
      "Ġsort": 4041,
      "Ġprett": 4042,
      "ĠCindy": 4043,
      "Ġfastest": 4044,
      "aces": 4045,
      "Ġcheek": 4046,
      "ected": 4047,
      "Ġlouder": 4048,
      "Ġfierce": 4049,
      "Benny": 4050,
      "Ġcleaning": 4051,
      "ĠGeorge": 4052,
      "ailable": 4053,
      "Ġblueberry": 4054,
      "Ġdisplay": 4055,
      "Ġremembers": 4056,
      "Thanks": 4057,
      "Ġmeans": 4058,
      "Ġbrothers": 4059,
      "Ġfloat": 4060,
      "Ġfloating": 4061,
      "Ġfrogs": 4062,
      "Ġfalls": 4063,
      "Ġsuper": 4064,
      "izzie": 4065,
      "Ġphot": 4066,
      "Ġreturn": 4067,
      "Ġsolved": 4068,
      "Ġpuzzles": 4069,
      "Ġwheels": 4070,
      "Ġfingers": 4071,
      "Ġsurround": 4072,
      "Ġflutter": 4073,
      "Ġchewed": 4074,
      "Ġscrew": 4075,
      "Ġpoured": 4076,
      "Ġavailable": 4077,
      "Ġsupply": 4078,
      "Ġsilver": 4079,
      "Ġstrawberry": 4080,
      "Ġrescue": 4081,
      "Ġcostum": 4082,
      "Ġcharming": 4083,
      "Ġenvelope": 4084,
      "Ġtrumpet": 4085,
      "Lola": 4086,
      "Mr": 4087,
      "Mark": 4088,
      "aff": 4089,
      "ced": 4090,
      "eer": 4091,
      "gn": 4092,
      "ges": 4093,
      "jam": 4094,
      "lau": 4095,
      "mare": 4096,
      "oppy": 4097,
      "ranny": 4098,
      "sit": 4099,
      "zer": 4100,
      "Ġach": 4101,
      "Ġsir": 4102,
      "Ġtheater": 4103,
      "Ġbet": 4104,
      "Ġbree": 4105,
      "Ġtoast": 4106,
      "Ġhive": 4107,
      "Ġluck": 4108,
      "Ġcre": 4109,
      "Ġcur": 4110,
      "Ġcaul": 4111,
      "Ġdict": 4112,
      "Ġwashing": 4113,
      "Ġmild": 4114,
      "Ġol": 4115,
      "Ġoat": 4116,
      "ĠTeddy": 4117,
      "arn": 4118,
      "atue": 4119,
      "Ġsaving": 4120,
      "ann": 4121,
      "ony": 4122,
      "Ġitch": 4123,
      "Ġinf": 4124,
      "Ġearth": 4125,
      "Ġyaw": 4126,
      "Ġyarn": 4127,
      "Ġrise": 4128,
      "Ġriding": 4129,
      "Ġstatue": 4130,
      "Ġshel": 4131,
      "amber": 4132,
      "Ġsoil": 4133,
      "aded": 4134,
      "ĠLul": 4135,
      "stairs": 4136,
      "unately": 4137,
      "ĠBun": 4138,
      "Ġliqu": 4139,
      "Ġshamp": 4140,
      "hter": 4141,
      "Ġrever": 4142,
      "Ġreind": 4143,
      "Ġnoteb": 4144,
      "Ġknight": 4145,
      "Ġclapping": 4146,
      "robe": 4147,
      "Ġchamber": 4148,
      "Ġvet": 4149,
      "Ġvroom": 4150,
      "Ġvalley": 4151,
      "Ġcareless": 4152,
      "Ġlaughter": 4153,
      "Ġpoked": 4154,
      "Ġpoison": 4155,
      "isten": 4156,
      "Ġcats": 4157,
      "Ġsunlight": 4158,
      "Ġquit": 4159,
      "ÅĵCan": 4160,
      "ionary": 4161,
      "Ġslipper": 4162,
      "ĠClaire": 4163,
      "Ġchess": 4164,
      "Ġjumps": 4165,
      "Ġglove": 4166,
      "Ġnowhere": 4167,
      "Ġtremb": 4168,
      "Ġunk": 4169,
      "Ġapplau": 4170,
      "Ġshouts": 4171,
      "Ġtrains": 4172,
      "ĠRachel": 4173,
      "Ġpulls": 4174,
      "Ġsandcast": 4175,
      "Ġstops": 4176,
      "Ġdrawer": 4177,
      "Ġpretending": 4178,
      "Ġlions": 4179,
      "Ġthanks": 4180,
      "Ġperfectly": 4181,
      "Ġcounter": 4182,
      "Ġfields": 4183,
      "Ġpraised": 4184,
      "Ġcrash": 4185,
      "Ġpastel": 4186,
      "Ġimagination": 4187,
      "Ġmissing": 4188,
      "Ġthrowing": 4189,
      "Ġhanger": 4190,
      "Ġmistakes": 4191,
      "Ġeasier": 4192,
      "Ġrespectful": 4193,
      "Ġgrandpa": 4194,
      "Ġstirred": 4195,
      "Ġbounced": 4196,
      "Ġhelm": 4197,
      "Ġaccepted": 4198,
      "Ġcandles": 4199,
      "Ġavoc": 4200,
      "Ġjellyfish": 4201,
      "Ġcooking": 4202,
      "Ġbegin": 4203,
      "Ġmodest": 4204,
      "Ġdiscovering": 4205,
      "Ġshells": 4206,
      "ÅĵThatÃ¢": 4207,
      "Ġagreement": 4208,
      "Ġpowder": 4209,
      "Ġmenu": 4210,
      "Ġvehicle": 4211,
      "Ġbanana": 4212,
      "Ġbracelet": 4213,
      "Ġfrightened": 4214,
      "Ġdessert": 4215,
      "jamas": 4216,
      "Ġbreeze": 4217,
      "Ġcaulif": 4218,
      "Ġdictionary": 4219,
      "Ġyawned": 4220,
      "ĠLulu": 4221,
      "Ġliquid": 4222,
      "Ġshampoo": 4223,
      "Ġreindeer": 4224,
      "Ġnotebook": 4225,
      "Ġslippery": 4226,
      "..": 4227,
      "Eventually": 4228,
      "Next": 4229,
      "ci": 4230,
      "com": 4231,
      "cut": 4232,
      "gen": 4233,
      "ikes": 4234,
      "iately": 4235,
      "lier": 4236,
      "nown": 4237,
      "nfort": 4238,
      "uzz": 4239,
      "was": 4240,
      "ym": 4241,
      "zag": 4242,
      "Ġsings": 4243,
      "Ġsink": 4244,
      "Ġsuff": 4245,
      "ress": 4246,
      "render": 4247,
      "reci": 4248,
      "Ġfest": 4249,
      "Ġfine": 4250,
      "ites": 4251,
      "Ġcel": 4252,
      "Ġchat": 4253,
      "Ġmention": 4254,
      "Ġpor": 4255,
      "ĠTed": 4256,
      "Ġgro": 4257,
      "Ġgym": 4258,
      "Ġitem": 4259,
      "ĠHelp": 4260,
      "Ġinsist": 4261,
      "igate": 4262,
      "igzag": 4263,
      "Ġrot": 4264,
      "Ġstaff": 4265,
      "rick": 4266,
      "Ġplays": 4267,
      "These": 4268,
      "Ġweal": 4269,
      "Ġweigh": 4270,
      "ĠBinky": 4271,
      "Ġlip": 4272,
      "Ġshade": 4273,
      "allow": 4274,
      "Ġreco": 4275,
      "Ġisn": 4276,
      "!\",": 4277,
      "Ġgoal": 4278,
      "Ġnames": 4279,
      "Ġclub": 4280,
      "Ġmanage": 4281,
      "Ġmeas": 4282,
      "ĠEach": 4283,
      "Ġflour": 4284,
      "estigate": 4285,
      "Ġvac": 4286,
      "Ġfeelings": 4287,
      "Ġholes": 4288,
      "Ġdoggy": 4289,
      "Ġthoughtful": 4290,
      "ĠFurry": 4291,
      "Ġknows": 4292,
      "Ġpeach": 4293,
      "osh": 4294,
      "aused": 4295,
      "uct": 4296,
      "Ġencou": 4297,
      "anges": 4298,
      "Ġopera": 4299,
      "Ġoranges": 4300,
      "Ġhandle": 4301,
      "Ġslides": 4302,
      "izes": 4303,
      "berries": 4304,
      "Ġbravely": 4305,
      "Ġstove": 4306,
      "Ġbadly": 4307,
      "Ġshouldn": 4308,
      "ĠGranny": 4309,
      "Ġdelay": 4310,
      "Ġunite": 4311,
      "Ġuncle": 4312,
      "Ġuncom": 4313,
      "Ġappro": 4314,
      "Ġappreci": 4315,
      "Ġhopes": 4316,
      "Ġnightmare": 4317,
      "Ġtowers": 4318,
      "Ġbehave": 4319,
      "Ġopens": 4320,
      "Ġfireman": 4321,
      "Ġfirework": 4322,
      "Ġairport": 4323,
      "spap": 4324,
      "Ġmarched": 4325,
      "Ġholds": 4326,
      "Ġpapers": 4327,
      "Ġgrowled": 4328,
      "Ġpajamas": 4329,
      "Ġjeep": 4330,
      "Ġpolish": 4331,
      "Ġbarn": 4332,
      "Ġattach": 4333,
      "Ġattached": 4334,
      "Ġattention": 4335,
      "Ġplanted": 4336,
      "Ġfreezer": 4337,
      "Ġraise": 4338,
      "ĠFloppy": 4339,
      "fortable": 4340,
      "Ġdiscovery": 4341,
      "Ġimagine": 4342,
      "Ġearlier": 4343,
      "Ġpresents": 4344,
      "Ġadmiring": 4345,
      "Ġbelongs": 4346,
      "ÅĵIÃ¢": 4347,
      "Ġinvestigate": 4348,
      "Ġshrugged": 4349,
      "Ġmeeting": 4350,
      "Ġeagerly": 4351,
      "Ġdistant": 4352,
      "Ġblowing": 4353,
      "Inside": 4354,
      "Ġburn": 4355,
      "ĠStar": 4356,
      "Ġwhistling": 4357,
      "Ġpaws": 4358,
      "Ġsneezed": 4359,
      "Today": 4360,
      "Ġordered": 4361,
      "Ġwhisper": 4362,
      "Ġrepeats": 4363,
      "Ġgolden": 4364,
      "Ġtwisted": 4365,
      "Ġtricks": 4366,
      "ĠRex": 4367,
      "Ġapologized": 4368,
      "Ġdestroyed": 4369,
      "Ġmuffin": 4370,
      "Ġunlock": 4371,
      "Ġdishwas": 4372,
      "Ġyoga": 4373,
      "Ġseparate": 4374,
      "Bye": 4375,
      "Ġprovide": 4376,
      "mediately": 4377,
      "Ġpanda": 4378,
      "Ġscooter": 4379,
      "Ġtwirled": 4380,
      "Ġgrinned": 4381,
      "Ġpenguin": 4382,
      "Ġrequest": 4383,
      "Ġscarf": 4384,
      "Ġbuckle": 4385,
      "Ġtrophy": 4386,
      "Ġachie": 4387,
      "nfortunately": 4388,
      "Ġcelery": 4389,
      "Ġgroc": 4390,
      "Ġrecogn": 4391,
      "Ġuncomfortable": 4392,
      "Ġdishwasher": 4393,
      "All": 4394,
      "First": 4395,
      "James": 4396,
      "Qu": 4397,
      "Tweet": 4398,
      "With": 4399,
      "Yum": 4400,
      "ait": 4401,
      "eak": 4402,
      "gie": 4403,
      "hh": 4404,
      "iers": 4405,
      "lv": 4406,
      "momet": 4407,
      "mother": 4408,
      "ple": 4409,
      "rmomet": 4410,
      "ubby": 4411,
      "Ġson": 4412,
      "Ġsle": 4413,
      "Ġsince": 4414,
      "Ġthermomet": 4415,
      "inking": 4416,
      "Ġlines": 4417,
      "Ġcaut": 4418,
      "Ġcable": 4419,
      "Ġpair": 4420,
      "Ġga": 4421,
      "ato": 4422,
      "ates": 4423,
      "Ġnation": 4424,
      "Ġnurse": 4425,
      "Ġhall": 4426,
      "ĠSee": 4427,
      "Ġthu": 4428,
      "lev": 4429,
      "ooped": 4430,
      "Ġrat": 4431,
      "Ġradi": 4432,
      "Ġsting": 4433,
      "Ġstairs": 4434,
      "Ġonion": 4435,
      "Ġforth": 4436,
      "ĠBunny": 4437,
      "Ġhappier": 4438,
      "Ġdove": 4439,
      "Ġneat": 4440,
      "ĠMilly": 4441,
      "ĠMaddy": 4442,
      "ores": 4443,
      "ĠJune": 4444,
      "Ġjail": 4445,
      "Ġspaces": 4446,
      "ĠAre": 4447,
      "ĠWh": 4448,
      "Ġworries": 4449,
      "aggie": 4450,
      "Ġmakeup": 4451,
      "Ġcoco": 4452,
      "rod": 4453,
      "Ġnewspap": 4454,
      "Ġchance": 4455,
      "Ġchubby": 4456,
      "ĠYour": 4457,
      "Ġburied": 4458,
      "Ġmyself": 4459,
      "ĠdidnÃ¢": 4460,
      "Ġintrod": 4461,
      "Ġposs": 4462,
      "Ġpressed": 4463,
      "Ġskills": 4464,
      "mand": 4465,
      "Ġshower": 4466,
      "bbing": 4467,
      "Ġorder": 4468,
      "ĠCar": 4469,
      "aches": 4470,
      "Ġsnapped": 4471,
      "Ġrabbits": 4472,
      "ĠPat": 4473,
      "ĠPeople": 4474,
      "Ġdeliver": 4475,
      "Ġheaded": 4476,
      "Ġdressed": 4477,
      "ĠRose": 4478,
      "Ġpulling": 4479,
      "Ġsmells": 4480,
      "Ġsailing": 4481,
      "Ġsoftly": 4482,
      "Ġforgave": 4483,
      "Ġhaircut": 4484,
      "Ġcutting": 4485,
      "Ġcreate": 4486,
      "Ġvelv": 4487,
      "Ġcomple": 4488,
      "Ġswinging": 4489,
      "Ġbelt": 4490,
      "Ġfallen": 4491,
      "Ġcupc": 4492,
      "Ġcups": 4493,
      "Ġblackboard": 4494,
      "Ġblankets": 4495,
      "Andy": 4496,
      "Ġbasketball": 4497,
      "Ġcrawling": 4498,
      "Ġexperi": 4499,
      "Ġhearts": 4500,
      "Ġincre": 4501,
      "Ġeagle": 4502,
      "Ġstarfish": 4503,
      "Ġnetwork": 4504,
      "Ġmystery": 4505,
      "Ġdesign": 4506,
      "Ġgrabs": 4507,
      "Ġcollecting": 4508,
      "Ġrockets": 4509,
      "Ġgrandmother": 4510,
      "Ġcrossed": 4511,
      "Ġsurrender": 4512,
      "Ġsteps": 4513,
      "Ġbouncing": 4514,
      "ĠFreddy": 4515,
      "Ġfilm": 4516,
      "Ġcricket": 4517,
      "Ġmodel": 4518,
      "ĠRemy": 4519,
      "Ġurge": 4520,
      "Ġbumped": 4521,
      "Ġhunter": 4522,
      "Ġcomplete": 4523,
      "Ġobserve": 4524,
      "lowly": 4525,
      "Ġstudied": 4526,
      "Ġunknown": 4527,
      "Ġfestiv": 4528,
      "Ġthermometer": 4529,
      "Ġradio": 4530,
      "Ġcocoa": 4531,
      "Ġvelvet": 4532,
      "Peter": 4533,
      "aked": 4534,
      "bug": 4535,
      "ding": 4536,
      "ives": 4537,
      "pes": 4538,
      "tter": 4539,
      "uzy": 4540,
      "Ġing": 4541,
      "hell": 4542,
      "Ġbaking": 4543,
      "Ġbicy": 4544,
      "Ġhumble": 4545,
      "Ġharsh": 4546,
      "Ġwaving": 4547,
      "Ġdive": 4548,
      "Ġotter": 4549,
      "isk": 4550,
      "Ġgir": 4551,
      "ories": 4552,
      "ĠHave": 4553,
      "Ġhero": 4554,
      "ĠHere": 4555,
      "Ġink": 4556,
      "Ġrag": 4557,
      "Ġrust": 4558,
      "Ġripe": 4559,
      "Ġbeamed": 4560,
      "Ġstom": 4561,
      "Ġstra": 4562,
      "Ġstro": 4563,
      "kelet": 4564,
      "Ġsoar": 4565,
      "rior": 4566,
      "ĠLilly": 4567,
      "ĠLizzie": 4568,
      "ĠBill": 4569,
      "Ġshot": 4570,
      "seek": 4571,
      "Ġreaches": 4572,
      "ĠMiss": 4573,
      "Ġsew": 4574,
      "Ġgolf": 4575,
      "Ġspike": 4576,
      "illa": 4577,
      "Ġhelps": 4578,
      "Ġknob": 4579,
      "Ġnovel": 4580,
      "Your": 4581,
      "Ġmeowed": 4582,
      "Ġrod": 4583,
      "Ġcarriage": 4584,
      "ĠEll": 4585,
      "place": 4586,
      "Ġchip": 4587,
      "Ġeveryday": 4588,
      "aped": 4589,
      "Ġpoke": 4590,
      "Ġprec": 4591,
      "Ġprevent": 4592,
      "Ġtwink": 4593,
      "Ġanyway": 4594,
      "osity": 4595,
      "ÅĵNo": 4596,
      "ÅĵDo": 4597,
      "ement": 4598,
      "Ġended": 4599,
      "Ġimmediately": 4600,
      "Ġglowed": 4601,
      "Ġremain": 4602,
      "Ġletting": 4603,
      "Ġwarrior": 4604,
      "bee": 4605,
      "Ġamazement": 4606,
      "Ġblueberries": 4607,
      "Ġdisc": 4608,
      "iously": 4609,
      "Ġappear": 4610,
      "Ġdemand": 4611,
      "Ġheads": 4612,
      "Ġfollows": 4613,
      "Ġladybug": 4614,
      "Ġperm": 4615,
      "ients": 4616,
      "Ġdrawings": 4617,
      "ĠInst": 4618,
      "Ġdeeper": 4619,
      "redients": 4620,
      "Ġhills": 4621,
      "Ġpoint": 4622,
      "Ġhotel": 4623,
      "Ġmustache": 4624,
      "Ġraven": 4625,
      "Ġcrazy": 4626,
      "Ġinstr": 4627,
      "ĠChirp": 4628,
      "ĠCharlie": 4629,
      "Ġshrink": 4630,
      "Ġignored": 4631,
      "Ġzooming": 4632,
      "Ġpuddles": 4633,
      "Ġsurf": 4634,
      "Ġexamined": 4635,
      "Ġbathe": 4636,
      "Ġstudying": 4637,
      "Ġbalanc": 4638,
      "Ġimpress": 4639,
      "Ġbouncy": 4640,
      "Ġquestion": 4641,
      "Ġglowing": 4642,
      "Ġscru": 4643,
      "Ġcushions": 4644,
      "Ġawe": 4645,
      "Ġloaded": 4646,
      "Ġrubs": 4647,
      "Ġlively": 4648,
      "Ġsqueeze": 4649,
      "Ġmotorcy": 4650,
      "Ġmuffins": 4651,
      "Ġchoice": 4652,
      "Ġprepare": 4653,
      "Ġtemple": 4654,
      "Ġbattery": 4655,
      "Ġsoldiers": 4656,
      "Ġtools": 4657,
      "Ġgraceful": 4658,
      "Ġrefreshed": 4659,
      "Ġmemories": 4660,
      "Ġtwigs": 4661,
      "Ġdrain": 4662,
      "Ġpumpkin": 4663,
      "Ġprettiest": 4664,
      "Ġcrept": 4665,
      "Ġinfant": 4666,
      "Ġcauliflower": 4667,
      "Ġwealthy": 4668,
      "Ġvacation": 4669,
      "Ġcompleted": 4670,
      "Ġcupcake": 4671,
      "Ġfestival": 4672,
      "Ġingredients": 4673,
      "Ġmotorcycle": 4674,
      "Henry": 4675,
      "Ouch": 4676,
      "Wait": 4677,
      "bles": 4678,
      "dled": 4679,
      "eve": 4680,
      "fit": 4681,
      "hus": 4682,
      "ib": 4683,
      "iastic": 4684,
      "mm": 4685,
      "rise": 4686,
      "te": 4687,
      "ti": 4688,
      "tti": 4689,
      "walk": 4690,
      "ÃĤ": 4691,
      "hetti": 4692,
      "Ġtugged": 4693,
      "Ġtucked": 4694,
      "Ġsig": 4695,
      "Ġsizes": 4696,
      "Ġwipe": 4697,
      "Ġbill": 4698,
      "Ġbab": 4699,
      "Ġbang": 4700,
      "Ġfut": 4701,
      "Ġlumber": 4702,
      "Ġcous": 4703,
      "Ġcards": 4704,
      "Ġhesit": 4705,
      "Ġdire": 4706,
      "Ġwaste": 4707,
      "Ġpan": 4708,
      "Ġpitch": 4709,
      "Ġpaused": 4710,
      "arm": 4711,
      "Ġgain": 4712,
      "iders": 4713,
      "enise": 4714,
      "ator": 4715,
      "atched": 4716,
      "Ġhalf": 4717,
      "ĠSlowly": 4718,
      "any": 4719,
      "orable": 4720,
      "otty": 4721,
      "eside": 4722,
      "Ġeff": 4723,
      "Ġeither": 4724,
      "uth": 4725,
      "Ġsty": 4726,
      "Ġstitch": 4727,
      "Ġweight": 4728,
      "Ġshakes": 4729,
      "Ġrele": 4730,
      "riends": 4731,
      "ĠMat": 4732,
      "ĠIts": 4733,
      "Ġboom": 4734,
      "Ġseas": 4735,
      "Ġspag": 4736,
      "urb": 4737,
      "icing": 4738,
      "Ġalive": 4739,
      "Ġalarm": 4740,
      "Ġroared": 4741,
      "ĠWho": 4742,
      "Ġflies": 4743,
      "Ġflav": 4744,
      "Ġflapped": 4745,
      "Ġchir": 4746,
      "Ġchores": 4747,
      "Ġpride": 4748,
      "ĠDotty": 4749,
      "Ġgrape": 4750,
      "Ġswitch": 4751,
      "Ġkneel": 4752,
      "Ġpoem": 4753,
      "Ġtrack": 4754,
      "Ġtruth": 4755,
      "Ġpears": 4756,
      "Ġsunrise": 4757,
      "ĠEveryday": 4758,
      "ĠJacky": 4759,
      "Ġstrugg": 4760,
      "Ġadorable": 4761,
      "Ġeaten": 4762,
      "Ġslip": 4763,
      "Ġclearing": 4764,
      "Ġgrill": 4765,
      "Ġsurprises": 4766,
      "xture": 4767,
      "Ġunh": 4768,
      "Ġrealize": 4769,
      "Ġshouting": 4770,
      "Ġdeer": 4771,
      "Ġdear": 4772,
      "Ġacorn": 4773,
      "Ġlistening": 4774,
      "Ġsticker": 4775,
      "Ġtastes": 4776,
      "Ġfixing": 4777,
      "Ġfoxes": 4778,
      "Ġshovel": 4779,
      "Ġunderstanding": 4780,
      "Ġfalling": 4781,
      "Ġwelcomed": 4782,
      "Ġwags": 4783,
      "Ġsprink": 4784,
      "Ġbeneath": 4785,
      "Ġbreathe": 4786,
      "Ġpatiently": 4787,
      "Ġcoloured": 4788,
      "Ġcarrying": 4789,
      "Ġcollected": 4790,
      "Ġhanging": 4791,
      "Ġwheat": 4792,
      "Ġenthus": 4793,
      "Ġcreatures": 4794,
      "Ġdisturb": 4795,
      "ĠBeep": 4796,
      "Ġtrusted": 4797,
      "Ġvalue": 4798,
      "Ġpeanuts": 4799,
      "Ġwrap": 4800,
      "Ġstuffed": 4801,
      "Ġmonkeys": 4802,
      "Ġselling": 4803,
      "Ġrepeat": 4804,
      "Ġsupport": 4805,
      "affe": 4806,
      "looking": 4807,
      "rnie": 4808,
      "ĠMarg": 4809,
      "Ġspending": 4810,
      "Ġpaddle": 4811,
      "Ġcrowd": 4812,
      "Ġbarks": 4813,
      "Ġpedal": 4814,
      "Ġimprove": 4815,
      "Ġuniverse": 4816,
      "Ġspoiled": 4817,
      "Ġincluded": 4818,
      "ĠJulie": 4819,
      "Ġchirping": 4820,
      "Ġphoto": 4821,
      "Ġtrembling": 4822,
      "Ġhelmet": 4823,
      "Ġavocado": 4824,
      "Ġsuffer": 4825,
      "Ġporch": 4826,
      "Ġapproached": 4827,
      "Ġslept": 4828,
      "Ġthunder": 4829,
      "Ġspaceship": 4830,
      "Ġbicycle": 4831,
      "Ġgiraffe": 4832,
      "keleton": 4833,
      "Ġbabies": 4834,
      "Ġfuture": 4835,
      "Ġeffort": 4836,
      "Ġspaghetti": 4837,
      "Ġenthusiastic": 4838,
      "Ann": 4839,
      "Cindy": 4840,
      "Mar": 4841,
      "Mmm": 4842,
      "Susie": 4843,
      "Sophie": 4844,
      "ae": 4845,
      "bul": 4846,
      "baby": 4847,
      "coon": 4848,
      "drobe": 4849,
      "fire": 4850,
      "iar": 4851,
      "ived": 4852,
      "vas": 4853,
      "xc": 4854,
      "xy": 4855,
      "ĊĠ": 4856,
      "Ġtar": 4857,
      "Ġtug": 4858,
      "Ġtide": 4859,
      "Ġants": 4860,
      "Ġsip": 4861,
      "Ġsense": 4862,
      "innie": 4863,
      "Ġbeside": 4864,
      "Ġtoes": 4865,
      "Ġfas": 4866,
      "ouble": 4867,
      "Ġlect": 4868,
      "Ġda": 4869,
      "Ġmi": 4870,
      "Ġpur": 4871,
      "Ġoak": 4872,
      "Ġoxy": 4873,
      "oming": 4874,
      "Ġgust": 4875,
      "iling": 4876,
      "Ġsaus": 4877,
      "Ġthir": 4878,
      "Ġthro": 4879,
      "ĠHolly": 4880,
      "irit": 4881,
      "utty": 4882,
      "Ġya": 4883,
      "Ġrid": 4884,
      "Ġbeam": 4885,
      "Ġstable": 4886,
      "ceed": 4887,
      "ĠyouÃ¢": 4888,
      "sters": 4889,
      "Ġforty": 4890,
      "ĠBuzz": 4891,
      "Ġlips": 4892,
      "Ġwanting": 4893,
      "Ġwhip": 4894,
      "htray": 4895,
      "Ġreward": 4896,
      "Ġashtray": 4897,
      "raged": 4898,
      "Ġoutfit": 4899,
      "ĠAb": 4900,
      "Ġcanvas": 4901,
      "Ġbackpack": 4902,
      "Ġbrid": 4903,
      "Ġbrings": 4904,
      "ases": 4905,
      "Ġrang": 4906,
      "Ġranch": 4907,
      "Ġnews": 4908,
      "Ġdecision": 4909,
      "Ġgotten": 4910,
      "Ġpress": 4911,
      "Ġpepper": 4912,
      "Ġskull": 4913,
      "Ġtwenty": 4914,
      "Ġoverjoy": 4915,
      "Ġquar": 4916,
      "Ġquiz": 4917,
      "othy": 4918,
      "ĠClara": 4919,
      "Ġchecked": 4920,
      "Ġtear": 4921,
      "Ġtelev": 4922,
      "Ġkindly": 4923,
      "Ġwarn": 4924,
      "Ġwardrobe": 4925,
      "ĠPandy": 4926,
      "Ġwriting": 4927,
      "Ġwrites": 4928,
      "Ġworkers": 4929,
      "Ġreplace": 4930,
      "ĠNext": 4931,
      "Ġtrail": 4932,
      "Ġtrave": 4933,
      "Ġdarkness": 4934,
      "Ġzipped": 4935,
      "Ġzipping": 4936,
      "Ġambul": 4937,
      "Ġsteam": 4938,
      "ĠLetÃ¢": 4939,
      "Ġrested": 4940,
      "Ġdrift": 4941,
      "Ġfiref": 4942,
      "Ġfireplace": 4943,
      "Ġdreamt": 4944,
      "Ġparts": 4945,
      "Sammy": 4946,
      "Ġhorses": 4947,
      "Ġmoments": 4948,
      "otten": 4949,
      "Ġdancer": 4950,
      "Ġceiling": 4951,
      "Ġfigured": 4952,
      "Ġgathering": 4953,
      "Ġthrows": 4954,
      "Ġkisses": 4955,
      "ĠSomething": 4956,
      "Ġeasily": 4957,
      "Ġactually": 4958,
      "Ġgrandbaby": 4959,
      "ĠSomeone": 4960,
      "Ġserve": 4961,
      "ĠStella": 4962,
      "Ġproblems": 4963,
      "Ġcabinet": 4964,
      "Ġmachines": 4965,
      "Ġweeks": 4966,
      "Ġrecording": 4967,
      "Ġreminder": 4968,
      "Ġsucceed": 4969,
      "Ġscratch": 4970,
      "ĠBrownie": 4971,
      "Ġdecorations": 4972,
      "Ġpiles": 4973,
      "Ġjogged": 4974,
      "Ġrubbing": 4975,
      "Ġbegged": 4976,
      "Ġbloomed": 4977,
      "Ġsqueezed": 4978,
      "Ġcompetition": 4979,
      "Ġpatterns": 4980,
      "Ġnails": 4981,
      "Really": 4982,
      "Ġcartoons": 4983,
      "ussel": 4984,
      "Ġreceive": 4985,
      "Ġobjects": 4986,
      "Ġpillows": 4987,
      "arian": 4988,
      "Ġshadows": 4989,
      "Ġargue": 4990,
      "Ġrevealed": 4991,
      "Ġsurrounded": 4992,
      "Ġshelves": 4993,
      "Ġapplauded": 4994,
      "Ġbeginning": 4995,
      "Ġitems": 4996,
      "Ġfireworks": 4997,
      "Ġnewspaper": 4998,
      "Ġexperience": 4999,
      "Ġstraight": 5000,
      "Ġprecious": 5001,
      "Ġdemanded": 5002,
      "Ġimpressive": 5003,
      "Ġbillboard": 5004,
      "Ġchirped": 5005,
      "Ġunhappy": 5006,
      "Ġfasc": 5007,
      "Ġlecture": 5008,
      "Ġoxygen": 5009,
      "Ġthirty": 5010,
      "Ġthroat": 5011,
      "Ġoverjoyed": 5012,
      "Ġtelevision": 5013,
      "Ġambulance": 5014,
      "Ah": 5015,
      "Betty": 5016,
      "Danny": 5017,
      "Fred": 5018,
      "Kitty": 5019,
      "Le": 5020,
      "Mor": 5021,
      "Ok": 5022,
      "Somet": 5023,
      "Yuck": 5024,
      "bie": 5025,
      "case": 5026,
      "cope": 5027,
      "ears": 5028,
      "lane": 5029,
      "liver": 5030,
      "men": 5031,
      "nal": 5032,
      "nies": 5033,
      "oed": 5034,
      "ris": 5035,
      "right": 5036,
      "sity": 5037,
      "uby": 5038,
      "vin": 5039,
      "vest": 5040,
      "wo": 5041,
      "ween": 5042,
      "yla": 5043,
      "Ġx": 5044,
      "Ġaer": 5045,
      "Ġast": 5046,
      "Ġsides": 5047,
      "Ġsimp": 5048,
      "Ġwigg": 5049,
      "Ġwife": 5050,
      "Ġbare": 5051,
      "Ġbones": 5052,
      "Ġbikes": 5053,
      "Ġtodd": 5054,
      "Ġtong": 5055,
      "rella": 5056,
      "Ġfir": 5057,
      "Ġfought": 5058,
      "Ġhedge": 5059,
      "Ġdare": 5060,
      "Ġdigg": 5061,
      "Ġduring": 5062,
      "Ġmice": 5063,
      "Ġgained": 5064,
      "Ġnicer": 5065,
      "ĠSun": 5066,
      "ĠSuzy": 5067,
      "llip": 5068,
      "etsy": 5069,
      "Ġinch": 5070,
      "Ġequ": 5071,
      "Ġevent": 5072,
      "Ġumb": 5073,
      "Ġyucky": 5074,
      "Ġrides": 5075,
      "Ġstem": 5076,
      "Ġstitc": 5077,
      "Ġshed": 5078,
      "ppers": 5079,
      "Ġsoaring": 5080,
      "Ġonwards": 5081,
      "Ġweap": 5082,
      "Ġlives": 5083,
      "Ġhappiest": 5084,
      "Ġdolly": 5085,
      "Ġnect": 5086,
      "ĠMike": 5087,
      "Ġanx": 5088,
      "terday": 5089,
      "Ġweren": 5090,
      "ĠJul": 5091,
      "Ġlollip": 5092,
      "Ġspell": 5093,
      "Ġspiders": 5094,
      "ĠAc": 5095,
      "artin": 5096,
      "Ġhelper": 5097,
      "Ġclick": 5098,
      "Ġclaw": 5099,
      "Ġnobody": 5100,
      "oplane": 5101,
      "Ġalright": 5102,
      "ongo": 5103,
      "Ġseeing": 5104,
      "Ġmeat": 5105,
      "Ġroaring": 5106,
      "Ġbirdie": 5107,
      "Ġcared": 5108,
      "Ġlaid": 5109,
      "Ġflame": 5110,
      "Ġsadness": 5111,
      "Ġprop": 5112,
      "ĠDenise": 5113,
      "Ġdownstairs": 5114,
      "Ġbecoming": 5115,
      "Ġlotion": 5116,
      "Ġswamp": 5117,
      "ĠFriends": 5118,
      "Ġpeppers": 5119,
      "Ġskirt": 5120,
      "Ġtweet": 5121,
      "ÅĵMom": 5122,
      "ÅĵThank": 5123,
      "ÅĵMommy": 5124,
      "ÅĵHello": 5125,
      "ilda": 5126,
      "Ġsneak": 5127,
      "Ġbookcase": 5128,
      "Ġideas": 5129,
      "Ġworks": 5130,
      "Ġgrey": 5131,
      "Ġcuriosity": 5132,
      "Ġwaits": 5133,
      "Ġsque": 5134,
      "Ġdresser": 5135,
      "ĠNot": 5136,
      "Ġfollowing": 5137,
      "Ġwarmth": 5138,
      "ĠRussel": 5139,
      "Ġrestless": 5140,
      "Ġhider": 5141,
      "Ġmonsters": 5142,
      "Ġtripped": 5143,
      "Ġsetting": 5144,
      "Ġreads": 5145,
      "Ġcreated": 5146,
      "Ġbowed": 5147,
      "Ġcooler": 5148,
      "Ġmarbles": 5149,
      "avin": 5150,
      "Ġcountry": 5151,
      "Ġwallet": 5152,
      "ĠKat": 5153,
      "ĠKim": 5154,
      "Ġsparkles": 5155,
      "Ġplanes": 5156,
      "Ġpoints": 5157,
      "Ġnapkin": 5158,
      "Ġbarrel": 5159,
      "Ġlandsc": 5160,
      "Ġsnowman": 5161,
      "Ġsigns": 5162,
      "Ġgifts": 5163,
      "Ġjournal": 5164,
      "Ġmailman": 5165,
      "Ġmission": 5166,
      "Ġfolded": 5167,
      "Ġfolding": 5168,
      "Ġseeker": 5169,
      "Ġraccoon": 5170,
      "Ġentire": 5171,
      "Ġburned": 5172,
      "Ġbandage": 5173,
      "Grace": 5174,
      "Ġparrot": 5175,
      "Ġarrows": 5176,
      "Ġdestination": 5177,
      "Ġpearl": 5178,
      "Ġcooked": 5179,
      "ĠBloom": 5180,
      "Ġticket": 5181,
      "âĤ¬âĢĿ": 5182,
      "Ġapologize": 5183,
      "Emily": 5184,
      "Ġpaddled": 5185,
      "Ġurged": 5186,
      "Ġyogurt": 5187,
      "Ġdrops": 5188,
      "ĠUnfortunately": 5189,
      "Ġuniversity": 5190,
      "Ġreceived": 5191,
      "Ġribbons": 5192,
      "ĠIsabel": 5193,
      "Ġsettle": 5194,
      "Ġcampfire": 5195,
      "uzzy": 5196,
      "Ġbetween": 5197,
      "Ġolive": 5198,
      "Ġmeasured": 5199,
      "Ġrecognized": 5200,
      "Quack": 5201,
      "ĠPatrick": 5202,
      "iskers": 5203,
      "Ġdiscuss": 5204,
      "Ġdirect": 5205,
      "Ġstyle": 5206,
      "Ġyawn": 5207,
      "Ġquarrel": 5208,
      "Ġfascin": 5209,
      "Moral": 5210,
      "Ġaeroplane": 5211,
      "Ġsimple": 5212,
      "Ġbarely": 5213,
      "Ġtoddl": 5214,
      "Ġfirm": 5215,
      "Ġdigging": 5216,
      "Ġumbrella": 5217,
      "Ġstitches": 5218,
      "Ġweapon": 5219,
      "Ġnectar": 5220,
      "Ġlollipop": 5221,
      "Ġlandscape": 5222,
      "Bella": 5223,
      "Exc": 5224,
      "Fl": 5225,
      "Frank": 5226,
      "Jake": 5227,
      "Mandy": 5228,
      "Or": 5229,
      "Polly": 5230,
      "Rachel": 5231,
      "Tina": 5232,
      "Uh": 5233,
      "aven": 5234,
      "azz": 5235,
      "corn": 5236,
      "do": 5237,
      "eon": 5238,
      "eep": 5239,
      "fl": 5240,
      "ience": 5241,
      "jo": 5242,
      "lb": 5243,
      "mble": 5244,
      "munk": 5245,
      "nif": 5246,
      "neath": 5247,
      "rs": 5248,
      "rig": 5249,
      "uri": 5250,
      "ube": 5251,
      "ups": 5252,
      "Ġtip": 5253,
      "Ġtub": 5254,
      "Ġtube": 5255,
      "Ġsigh": 5256,
      "Ġskeleton": 5257,
      "ndar": 5258,
      "inarian": 5259,
      "Ġbank": 5260,
      "Ġtore": 5261,
      "Ġtonight": 5262,
      "Ġhate": 5263,
      "Ġhurried": 5264,
      "Ġfive": 5265,
      "Ġfash": 5266,
      "Ġflex": 5267,
      "ita": 5268,
      "ito": 5269,
      "itely": 5270,
      "Ġlugg": 5271,
      "Ġcott": 5272,
      "Ġcale": 5273,
      "Ġcity": 5274,
      "eries": 5275,
      "Ġmall": 5276,
      "Ġpant": 5277,
      "Ġpages": 5278,
      "Ġoas": 5279,
      "Ġobe": 5280,
      "ompl": 5281,
      "ĠTues": 5282,
      "arry": 5283,
      "isies": 5284,
      "Ġgor": 5285,
      "iliar": 5286,
      "cky": 5287,
      "Ġrising": 5288,
      "Ġbeard": 5289,
      "Ġstaring": 5290,
      "Ġstadi": 5291,
      "Ġsore": 5292,
      "ĠLater": 5293,
      "unes": 5294,
      "ĠBy": 5295,
      "ĠBaby": 5296,
      "ĠBee": 5297,
      "ĠBumpy": 5298,
      "ĠBetty": 5299,
      "ĠBongo": 5300,
      "herman": 5301,
      "Ġshown": 5302,
      "Ġres": 5303,
      "ĠMeri": 5304,
      "ĠMaggie": 5305,
      "Ġboards": 5306,
      "ĠJet": 5307,
      "ĠJana": 5308,
      "ĠJosh": 5309,
      "Ġlogs": 5310,
      "Ġjazz": 5311,
      "Ġexact": 5312,
      "ĠAn": 5313,
      "ĠAbby": 5314,
      "Ġarea": 5315,
      "ichell": 5316,
      "aret": 5317,
      "Ġscurried": 5318,
      "Ġscooped": 5319,
      "ddy": 5320,
      "Ġworse": 5321,
      "ĠErnie": 5322,
      "Ġcoach": 5323,
      "Ġcopper": 5324,
      "rol": 5325,
      "Ġmuddy": 5326,
      "Ġflood": 5327,
      "quito": 5328,
      "Ġchoo": 5329,
      "Ġchop": 5330,
      "Ġchalk": 5331,
      "Ġvent": 5332,
      "Ġprunes": 5333,
      "Ġbuzz": 5334,
      "Ġbulb": 5335,
      "aple": 5336,
      "antly": 5337,
      "Ġstrang": 5338,
      "ÅĵWe": 5339,
      "ÅĵDon": 5340,
      "ÅĵWhy": 5341,
      "Ġrooms": 5342,
      "Ġofficer": 5343,
      "izing": 5344,
      "Ġbrand": 5345,
      "Ġteles": 5346,
      "Ġteasing": 5347,
      "Ġremained": 5348,
      "ĠletÃ¢": 5349,
      "ipment": 5350,
      "ĠBobo": 5351,
      "Ġwarning": 5352,
      "ĠPit": 5353,
      "Ġwritten": 5354,
      "Ġthrilled": 5355,
      "Ġcryst": 5356,
      "Ġvoices": 5357,
      "Ġtremble": 5358,
      "Ġdoors": 5359,
      "Ġgreedy": 5360,
      "ĠNutty": 5361,
      "Ġbites": 5362,
      "ancake": 5363,
      "Ġraining": 5364,
      "Ġsweets": 5365,
      "Ġtalent": 5366,
      "ĠRob": 5367,
      "Ġcontrol": 5368,
      "Ġrestore": 5369,
      "Ġforgotten": 5370,
      "Ġsingle": 5371,
      "Ġfiremen": 5372,
      "ults": 5373,
      "Ġpetted": 5374,
      "Ġswims": 5375,
      "Ġbows": 5376,
      "ĠDog": 5377,
      "Ġsidewalk": 5378,
      "Ġcastles": 5379,
      "Ġplanet": 5380,
      "Ġplanets": 5381,
      "Ġbuildings": 5382,
      "iggy": 5383,
      "Ġsecrets": 5384,
      "eterinarian": 5385,
      "Ġcere": 5386,
      "Ġcreamy": 5387,
      "Ġpasta": 5388,
      "Ġpastels": 5389,
      "Ġwinter": 5390,
      "Ġpracticing": 5391,
      "Ġhopeful": 5392,
      "Ġinvite": 5393,
      "Ġaccompl": 5394,
      "Ġneighborhood": 5395,
      "Ġkicking": 5396,
      "Ġdrinks": 5397,
      "Ġpigeon": 5398,
      "Ġgems": 5399,
      "ceptor": 5400,
      "ĠAli": 5401,
      "Ġactiv": 5402,
      "Ġstirs": 5403,
      "Ġzoomed": 5404,
      "Ġburst": 5405,
      "Ġburning": 5406,
      "Ġmountains": 5407,
      "ĠSteve": 5408,
      "Ġcomforted": 5409,
      "ĠBefore": 5410,
      "Ġescaped": 5411,
      "Ġfisherman": 5412,
      "Ġvalued": 5413,
      "ĠHowever": 5414,
      "Ġsneezing": 5415,
      "Ġcircus": 5416,
      "Ġmatching": 5417,
      "Ġhonking": 5418,
      "ĠLeave": 5419,
      "Ġjewels": 5420,
      "Ġpopcorn": 5421,
      "ĠGod": 5422,
      "Ġsilent": 5423,
      "Ġtricky": 5424,
      "Ġegg": 5425,
      "Ġunlocked": 5426,
      "Ġsprayed": 5427,
      "Ġseparated": 5428,
      "Ġartist": 5429,
      "Ġrefreshing": 5430,
      "Ġunpacked": 5431,
      "Ġribbon": 5432,
      "Ġcostume": 5433,
      "Ġcostumes": 5434,
      "annon": 5435,
      "Ġitchy": 5436,
      "Ġsandcastles": 5437,
      "Ġinsisted": 5438,
      "Ġencouraged": 5439,
      "Ġgroceries": 5440,
      "Ġcautiously": 5441,
      "ĠWhiskers": 5442,
      "ĠEllie": 5443,
      "Ġchipmunk": 5444,
      "Ġpermit": 5445,
      "ĠInstead": 5446,
      "Ġbalancing": 5447,
      "Ġsigned": 5448,
      "Ġcousin": 5449,
      "Ġreleased": 5450,
      "ĠMatt": 5451,
      "Ġtarget": 5452,
      "Ġdaisies": 5453,
      "Ġmixture": 5454,
      "Ġsausage": 5455,
      "Sometimes": 5456,
      "Ġequipment": 5457,
      "Ġanxious": 5458,
      "ĠAcceptor": 5459,
      "Ġclaws": 5460,
      "Fluffy": 5461,
      "nifer": 5462,
      "Ġfashion": 5463,
      "Ġflexible": 5464,
      "Ġluggage": 5465,
      "Ġcalendar": 5466,
      "Ġpants": 5467,
      "Ġoasis": 5468,
      "Ġobey": 5469,
      "ĠTuesday": 5470,
      "Ġgorilla": 5471,
      "Ġstadium": 5472,
      "Ġexactly": 5473,
      "ichelle": 5474,
      "Ġstrangers": 5475,
      "Ġtelescope": 5476,
      "AA": 5477,
      "Ducky": 5478,
      "Fin": 5479,
      "Lisa": 5480,
      "Millie": 5481,
      "Maddy": 5482,
      "Sh": 5483,
      "Tilly": 5484,
      "Ye": 5485,
      "az": 5486,
      "aver": 5487,
      "aving": 5488,
      "aia": 5489,
      "ales": 5490,
      "eed": 5491,
      "eedy": 5492,
      "fied": 5493,
      "hive": 5494,
      "len": 5495,
      "lon": 5496,
      "mend": 5497,
      "mallow": 5498,
      "oved": 5499,
      "oss": 5500,
      "ollow": 5501,
      "opper": 5502,
      "ring": 5503,
      "roph": 5504,
      "shes": 5505,
      "squito": 5506,
      "tain": 5507,
      "tory": 5508,
      "ux": 5509,
      "zen": 5510,
      "Ãĥ": 5511,
      "ĠĠĊ": 5512,
      "ĠOnce": 5513,
      "hest": 5514,
      "Ġsuit": 5515,
      "Ġwob": 5516,
      "Ġwider": 5517,
      "Ġbother": 5518,
      "Ġbanged": 5519,
      "Ġhated": 5520,
      "Ġlily": 5521,
      "Ġlime": 5522,
      "Ġlux": 5523,
      "Ġhen": 5524,
      "Ġheat": 5525,
      "Ġdried": 5526,
      "Ġmel": 5527,
      "Ġmarsh": 5528,
      "Ġpours": 5529,
      "ommend": 5530,
      "ĠTony": 5531,
      "aron": 5532,
      "arles": 5533,
      "Ġgoose": 5534,
      "enge": 5535,
      "Ġnut": 5536,
      "Ġnone": 5537,
      "ĠSure": 5538,
      "imi": 5539,
      "immer": 5540,
      "oni": 5541,
      "orful": 5542,
      "Ġthird": 5543,
      "ĠHop": 5544,
      "ety": 5545,
      "ckey": 5546,
      "Ġunt": 5547,
      "igail": 5548,
      "Ġriddle": 5549,
      "Ġbead": 5550,
      "Ġsoared": 5551,
      "Ġsoak": 5552,
      "Ġhistory": 5553,
      "Ġplain": 5554,
      "ĠListen": 5555,
      "ĠBir": 5556,
      "ĠBig": 5557,
      "ĠBoth": 5558,
      "ĠBeth": 5559,
      "ĠBetsy": 5560,
      "ĠBiggy": 5561,
      "Ġshall": 5562,
      "allenge": 5563,
      "htub": 5564,
      "Ġnotes": 5565,
      "ĠMan": 5566,
      "ĠMick": 5567,
      "ĠMaisy": 5568,
      "ĠMandy": 5569,
      "ĠMae": 5570,
      "ĠMimi": 5571,
      "Ġann": 5572,
      "Ġlosing": 5573,
      "Ġoutdo": 5574,
      "Ġspirit": 5575,
      "Ġexit": 5576,
      "ĠTimothy": 5577,
      "artie": 5578,
      "icia": 5579,
      "ĠcanÃ¢": 5580,
      "aren": 5581,
      "Ġfeast": 5582,
      "Ġmane": 5583,
      "Ġscore": 5584,
      "Ġscold": 5585,
      "Ġworth": 5586,
      "Ġfault": 5587,
      "Ġcaring": 5588,
      "ĠEric": 5589,
      "Ġcode": 5590,
      "Ġcoats": 5591,
      "Ġchallenge": 5592,
      "Ġdecides": 5593,
      "Ġvict": 5594,
      "Ġveterinarian": 5595,
      "ĠDid": 5596,
      "ĠDependable": 5597,
      "usted": 5598,
      "Ġhose": 5599,
      "Ġhockey": 5600,
      "Ġswung": 5601,
      "uckily": 5602,
      "ĠFire": 5603,
      "essi": 5604,
      "anted": 5605,
      "Ġmosquito": 5606,
      "ĠJackÃ¢": 5607,
      "Ġpushes": 5608,
      "uced": 5609,
      "Ġstruggled": 5610,
      "angled": 5611,
      "ÅĵOh": 5612,
      "ÅĵSure": 5613,
      "ÅĵNow": 5614,
      "Ġsorting": 5615,
      "bbled": 5616,
      "Ġslap": 5617,
      "Ġslapped": 5618,
      "Ġsliding": 5619,
      "emem": 5620,
      "Ġbye": 5621,
      "Ġbravery": 5622,
      "Ġbravest": 5623,
      "Ġsnap": 5624,
      "Ġhurting": 5625,
      "iper": 5626,
      "Ġstole": 5627,
      "Ġstolen": 5628,
      "Ġwondering": 5629,
      "ĠGet": 5630,
      "ĠGood": 5631,
      "Ġturning": 5632,
      "Ġcrunch": 5633,
      "Ġcrumb": 5634,
      "ffic": 5635,
      "Ġgreet": 5636,
      "Joey": 5637,
      "hyth": 5638,
      "Ġwherever": 5639,
      "ĠSpike": 5640,
      "ĠSpeedy": 5641,
      "Ġmagaz": 5642,
      "Ġtrapped": 5643,
      "Ġtraffic": 5644,
      "ĠRory": 5645,
      "ĠRuby": 5646,
      "ĠRhyth": 5647,
      "Ġlistens": 5648,
      "olorful": 5649,
      "Ġfrozen": 5650,
      "Ġwooden": 5651,
      "Ġprinted": 5652,
      "though": 5653,
      "Ġpretends": 5654,
      "Ġshoe": 5655,
      "Ġshopping": 5656,
      "Ġbreaking": 5657,
      "Ġcompany": 5658,
      "ĠwonÃ¢": 5659,
      "Ġbeehive": 5660,
      "Ġvisiting": 5661,
      "Ġpaints": 5662,
      "Ġpaintings": 5663,
      "ixie": 5664,
      "Ġanswers": 5665,
      "Ġfreeze": 5666,
      "Ġcoral": 5667,
      "Ġreply": 5668,
      "Ġtune": 5669,
      "Ġgiggling": 5670,
      "Ġdesert": 5671,
      "Ġneighbors": 5672,
      "Ġracing": 5673,
      "Ġrecommend": 5674,
      "Ġpotato": 5675,
      "Ġenter": 5676,
      "ĠAlways": 5677,
      "ĠBruce": 5678,
      "Ġteaching": 5679,
      "Ġblows": 5680,
      "Ġcheering": 5681,
      "ĠBecky": 5682,
      "Ġbathtub": 5683,
      "Ġbandages": 5684,
      "Ġsafer": 5685,
      "Ġsafety": 5686,
      "ĠNoah": 5687,
      "Ġcracker": 5688,
      "Before": 5689,
      "Ġmicroph": 5690,
      "ĠOr": 5691,
      "ĠOliver": 5692,
      "Ġvideos": 5693,
      "ĠMaria": 5694,
      "Ġmarching": 5695,
      "Emma": 5696,
      "Ġsports": 5697,
      "Ġmayor": 5698,
      "Chirp": 5699,
      "Charlie": 5700,
      "Ġpowers": 5701,
      "ĠAnnie": 5702,
      "Ġvanished": 5703,
      "Ġgracefully": 5704,
      "Ġbasement": 5705,
      "Ġbaseball": 5706,
      "Ġbeans": 5707,
      "ĠJudy": 5708,
      "Ġsettled": 5709,
      "Ġbrushed": 5710,
      "Ġbrushes": 5711,
      "Ġargued": 5712,
      "uzie": 5713,
      "Ġlicks": 5714,
      "Ġscattered": 5715,
      "Ġfluttering": 5716,
      "Ġsandcastle": 5717,
      "Ġappreciate": 5718,
      "Ġachieve": 5719,
      "Ġachieved": 5720,
      "Ġpossible": 5721,
      "ĠCarol": 5722,
      "Ġinstruct": 5723,
      "Ġsurface": 5724,
      "ĠMargaret": 5725,
      "Ġpurred": 5726,
      "Ġbridges": 5727,
      "Ġtongue": 5728,
      "Ġproperly": 5729,
      "Ġsquealed": 5730,
      "Quackers": 5731,
      "Ġfascinated": 5732,
      "Ġventured": 5733,
      "Ġcereal": 5734,
      "mallows": 5735,
      "Ġmarshmallows": 5736,
      "Ġbeads": 5737,
      "emember": 5738,
      "Ġmagazine": 5739,
      "ĠRhythm": 5740,
      "Ġmicrophone": 5741,
      "Alex": 5742,
      "Car": 5743,
      "Claire": 5744,
      "Clara": 5745,
      "Did": 5746,
      "During": 5747,
      "Ella": 5748,
      "Have": 5749,
      "Happy": 5750,
      "Jerry": 5751,
      "June": 5752,
      "Josh": 5753,
      "Kat": 5754,
      "Kate": 5755,
      "Listen": 5756,
      "Nee": 5757,
      "Pete": 5758,
      "Sandy": 5759,
      "Vroom": 5760,
      "Very": 5761,
      "Youth": 5762,
      "cles": 5763,
      "dom": 5764,
      "eens": 5765,
      "fy": 5766,
      "go": 5767,
      "ha": 5768,
      "ipt": 5769,
      "lings": 5770,
      "nk": 5771,
      "oh": 5772,
      "oor": 5773,
      "pite": 5774,
      "rily": 5775,
      "uage": 5776,
      "uppy": 5777,
      "while": 5778,
      "you": 5779,
      "Ġ1": 5780,
      "ĠYes": 5781,
      "Ġtipt": 5782,
      "Ġsway": 5783,
      "Ġsix": 5784,
      "Ġwed": 5785,
      "Ġwid": 5786,
      "Ġwink": 5787,
      "Ġbunch": 5788,
      "Ġhoo": 5789,
      "Ġfed": 5790,
      "Ġfet": 5791,
      "Ġfaded": 5792,
      "ities": 5793,
      "Ġlang": 5794,
      "Ġlower": 5795,
      "Ġcough": 5796,
      "ern": 5797,
      "Ġheaven": 5798,
      "Ġdied": 5799,
      "Ġdots": 5800,
      "Ġmop": 5801,
      "Ġpout": 5802,
      "Ġoil": 5803,
      "omes": 5804,
      "ĠTy": 5805,
      "ĠTwo": 5806,
      "ays": 5807,
      "inger": 5808,
      "arter": 5809,
      "Ġgear": 5810,
      "ido": 5811,
      "ils": 5812,
      "ĠSqu": 5813,
      "ĠSuzie": 5814,
      "ans": 5815,
      "anwhile": 5816,
      "onnie": 5817,
      "ora": 5818,
      "vers": 5819,
      "veral": 5820,
      "Ġemer": 5821,
      "oosh": 5822,
      "Ġrip": 5823,
      "Ġripped": 5824,
      "Ġbeat": 5825,
      "Ġbeaver": 5826,
      "amie": 5827,
      "Ġsocc": 5828,
      "Ġonward": 5829,
      "Ġplenty": 5830,
      "Ġplates": 5831,
      "Ġupstairs": 5832,
      "ĠLac": 5833,
      "ĠLee": 5834,
      "ĠLike": 5835,
      "sted": 5836,
      "Ġplaytime": 5837,
      "ĠBuzzy": 5838,
      "chor": 5839,
      "choo": 5840,
      "hero": 5841,
      "Ġsmarter": 5842,
      "Ġkings": 5843,
      "Ġdoves": 5844,
      "Ġreass": 5845,
      "ĠMaple": 5846,
      "Ġanchor": 5847,
      "ugs": 5848,
      "ĠJessi": 5849,
      "Ġseag": 5850,
      "Ġseveral": 5851,
      "Ġjunk": 5852,
      "Ġspong": 5853,
      "Ġspices": 5854,
      "inda": 5855,
      "umm": 5856,
      "?\",": 5857,
      "Ġbacked": 5858,
      "Ġknot": 5859,
      "Ġcliff": 5860,
      "Ġnodd": 5861,
      "Ġscoop": 5862,
      "Ġscales": 5863,
      "agers": 5864,
      "iform": 5865,
      "Ġcob": 5866,
      "Ġflight": 5867,
      "Ġflap": 5868,
      "Ġflapping": 5869,
      "plane": 5870,
      "Ġhugging": 5871,
      "Ġchases": 5872,
      "Ġvowed": 5873,
      "Ġblood": 5874,
      "Ġblouse": 5875,
      "Ġprank": 5876,
      "ĠDina": 5877,
      "Ġbudge": 5878,
      "Ġgrabbing": 5879,
      "Ġsword": 5880,
      "ĠFirst": 5881,
      "ĠFido": 5882,
      "Ġmoves": 5883,
      "Ġanytime": 5884,
      "ĠJackie": 5885,
      "Ġwatered": 5886,
      "ĠJokes": 5887,
      "Ġquilt": 5888,
      "Ġqueens": 5889,
      "Ġstruck": 5890,
      "ÅĵLook": 5891,
      "ÅĵHi": 5892,
      "Ġcomfy": 5893,
      "Ġcub": 5894,
      "iley": 5895,
      "ĠCl": 5896,
      "ĠColorful": 5897,
      "izon": 5898,
      "Ġbrain": 5899,
      "Ġunderneath": 5900,
      "Ġsnail": 5901,
      "Ġsnatched": 5902,
      "Ġfamiliar": 5903,
      "Ġstays": 5904,
      "Ġexplorers": 5905,
      "Ġlets": 5906,
      "Ġconc": 5907,
      "Ġconf": 5908,
      "Ġconn": 5909,
      "ĠPam": 5910,
      "ĠPinky": 5911,
      "ĠPaul": 5912,
      "ĠPiper": 5913,
      "ĠPuppy": 5914,
      "ĠGina": 5915,
      "ĠGavin": 5916,
      "Ġrule": 5917,
      "Ġrush": 5918,
      "Ġcolored": 5919,
      "Ġcoloring": 5920,
      "Ġuniform": 5921,
      "Ġkeeps": 5922,
      "Ġkeeping": 5923,
      "Ġyelling": 5924,
      "ounting": 5925,
      "ĠNee": 5926,
      "ĠNancy": 5927,
      "Ġbroom": 5928,
      "athan": 5929,
      "Ġjoking": 5930,
      "Ġsweeties": 5931,
      "Ġperched": 5932,
      "ĠRain": 5933,
      "ĠRabbit": 5934,
      "Jacky": 5935,
      "Ġsticky": 5936,
      "Ġfrosting": 5937,
      "Ġopening": 5938,
      "Ġcontain": 5939,
      "Ġcontest": 5940,
      "Ġzigzag": 5941,
      "Ġamount": 5942,
      "ĠLeticia": 5943,
      "Ġprinting": 5944,
      "Ġdrinking": 5945,
      "Ġtallest": 5946,
      "Ġarrive": 5947,
      "Ġhorizon": 5948,
      "Ġpets": 5949,
      "Ġyesterday": 5950,
      "Ġairplane": 5951,
      "ĠEmilda": 5952,
      "Ġmarked": 5953,
      "ĠKin": 5954,
      "ĠKaren": 5955,
      "Ġpaintbr": 5956,
      "ĠJennifer": 5957,
      "Ġgrowl": 5958,
      "Ġguest": 5959,
      "Ġraised": 5960,
      "Ġwagging": 5961,
      "Ġbottles": 5962,
      "Ġsitu": 5963,
      "Bobby": 5964,
      "Ġdisappear": 5965,
      "Ġhealed": 5966,
      "Ġbringing": 5967,
      "Ġscreams": 5968,
      "Ġreaching": 5969,
      "Ġimagining": 5970,
      "Ġwinner": 5971,
      "Ġexpected": 5972,
      "Ġstreets": 5973,
      "Ġrespons": 5974,
      "Ġspeaking": 5975,
      "ĠChad": 5976,
      "ĠChris": 5977,
      "Ġmouths": 5978,
      "Ġshrinking": 5979,
      "Ġcelebrating": 5980,
      "Ġignore": 5981,
      "Ġpigs": 5982,
      "Ġvillagers": 5983,
      "ophia": 5984,
      "ception": 5985,
      "Ġpots": 5986,
      "Ġaccidents": 5987,
      "Ġtomato": 5988,
      "Ġmedals": 5989,
      "Ġwhistled": 5990,
      "Ġorganizing": 5991,
      "Ġprotected": 5992,
      "Ġregret": 5993,
      "Ġsource": 5994,
      "Ġpoliceman": 5995,
      "Ġwraps": 5996,
      "Grandpa": 5997,
      "Ġprice": 5998,
      "Ġcrackers": 5999,
      "Ġtasks": 6000,
      "Ġpouring": 6001,
      "Ġindeed": 6002,
      "ĠOw": 6003,
      "Ġtickled": 6004,
      "Ġsqueezing": 6005,
      "Ġperformance": 6006,
      "ibbit": 6007,
      "ĠTrouble": 6008,
      "Emmy": 6009,
      "Ġmasks": 6010,
      "ĠUntil": 6011,
      "Ġcaptain": 6012,
      "Ġmelting": 6013,
      "Ġimproved": 6014,
      "ĠZoomy": 6015,
      "ĠZigzag": 6016,
      "Ġmemory": 6017,
      "Jenny": 6018,
      "Ġtornado": 6019,
      "omeday": 6020,
      "ĠShannon": 6021,
      "ĠSharon": 6022,
      "Ġstrike": 6023,
      "Ġstripes": 6024,
      "ĠIsn": 6025,
      "Ġweeping": 6026,
      "Ġworms": 6027,
      "Ġcuddle": 6028,
      "Ġdusty": 6029,
      "Ġreveal": 6030,
      "Ġsuperhero": 6031,
      "Ġfluttered": 6032,
      "Ġcurly": 6033,
      "Ġolives": 6034,
      "annah": 6035,
      "...": 6036,
      "Ġmentioned": 6037,
      "Ġgrocery": 6038,
      "Ġgaze": 6039,
      "Ġhallway": 6040,
      "Ġintroduce": 6041,
      "Ġincrease": 6042,
      "Ġstomach": 6043,
      "Ġtwinkling": 6044,
      "Ġscrubbed": 6045,
      "Ġscrubbing": 6046,
      "Ġhesitated": 6047,
      "Ġtracks": 6048,
      "Ġstruggling": 6049,
      "Ġacorns": 6050,
      "ĠAbi": 6051,
      "Freddy": 6052,
      "ĠKatie": 6053,
      "urious": 6054,
      "ÅĵDonÃ¢": 6055,
      "ĠDoggy": 6056,
      "Ġactivities": 6057,
      "Yeah": 6058,
      "Ġluxu": 6059,
      "Ġmelon": 6060,
      "immering": 6061,
      "Ġoutdoors": 6062,
      "Ġtiptoed": 6063,
      "Ġwedding": 6064,
      "Ġlanguage": 6065,
      "ĠSquirrel": 6066,
      "Ġsoccer": 6067,
      "ĠLacy": 6068,
      "Ġseagull": 6069,
      "Ġsponge": 6070,
      "Ġnodding": 6071,
      "ĠNeeNee": 6072,
      ".'": 6073,
      "?'": 6074,
      "Ab": 6075,
      "Abby": 6076,
      "Binky": 6077,
      "Days": 6078,
      "Elly": 6079,
      "Fine": 6080,
      "George": 6081,
      "Ju": 6082,
      "Jul": 6083,
      "Luckily": 6084,
      "Miss": 6085,
      "Mike": 6086,
      "Mittens": 6087,
      "Maggie": 6088,
      "Martin": 6089,
      "Not": 6090,
      "Rob": 6091,
      "Rose": 6092,
      "Rory": 6093,
      "Remember": 6094,
      "Time": 6095,
      "Tiny": 6096,
      "Toby": 6097,
      "Unfortunately": 6098,
      "aqu": 6099,
      "boo": 6100,
      "bur": 6101,
      "bric": 6102,
      "dad": 6103,
      "ex": 6104,
      "fork": 6105,
      "gl": 6106,
      "ger": 6107,
      "gers": 6108,
      "kip": 6109,
      "kins": 6110,
      "nce": 6111,
      "njoy": 6112,
      "ody": 6113,
      "oves": 6114,
      "pected": 6115,
      "ru": 6116,
      "rance": 6117,
      "rup": 6118,
      "ude": 6119,
      "va": 6120,
      "well": 6121,
      "yond": 6122,
      "zes": 6123,
      "Â«": 6124,
      "Â»": 6125,
      "ĊĊ": 6126,
      "ĠQuackers": 6127,
      "ĠVroom": 6128,
      "hee": 6129,
      "Ġtim": 6130,
      "Ġties": 6131,
      "Ġtips": 6132,
      "Ġtangled": 6133,
      "Ġsomeday": 6134,
      "Ġwest": 6135,
      "Ġbin": 6136,
      "Ġhum": 6137,
      "Ġhood": 6138,
      "Ġhomes": 6139,
      "Ġwakes": 6140,
      "Ġfreed": 6141,
      "itude": 6142,
      "ouch": 6143,
      "Ġcape": 6144,
      "Ġdar": 6145,
      "Ġpun": 6146,
      "Ġpause": 6147,
      "Ġport": 6148,
      "Ġpage": 6149,
      "Ġocc": 6150,
      "ariss": 6151,
      "Ġgle": 6152,
      "Ġgall": 6153,
      "Ġgroom": 6154,
      "idnight": 6155,
      "Ġsank": 6156,
      "Ġnavy": 6157,
      "ĠSant": 6158,
      "ĠSince": 6159,
      "imon": 6160,
      "lect": 6161,
      "Ġhers": 6162,
      "Ġeight": 6163,
      "utside": 6164,
      "Ġyel": 6165,
      "Ġbelly": 6166,
      "Ġbeyond": 6167,
      "Ġstage": 6168,
      "Ġsoaked": 6169,
      "ĠLinda": 6170,
      "Ġplayers": 6171,
      "Ġwears": 6172,
      "Ġwept": 6173,
      "chair": 6174,
      "Ġshock": 6175,
      "Ġshined": 6176,
      "ĠĊĊ": 6177,
      "seph": 6178,
      "Ġrelease": 6179,
      "Ġreception": 6180,
      "ĠMichelle": 6181,
      "ĠMidnight": 6182,
      "ĠItÃ¢": 6183,
      "Ġbol": 6184,
      "ĠJac": 6185,
      "Ġloc": 6186,
      "Ġjug": 6187,
      "Ġgobbled": 6188,
      "Ġspill": 6189,
      "Ġspook": 6190,
      "Ġspikes": 6191,
      "Ġexha": 6192,
      "ĠAnny": 6193,
      "ĠAyla": 6194,
      "Ġtheirs": 6195,
      "âĤ¬,": 6196,
      "Ġknelt": 6197,
      "Ġclue": 6198,
      "Ġclues": 6199,
      "Ġleap": 6200,
      "Ġleaking": 6201,
      "opes": 6202,
      "Ġscient": 6203,
      "Ġscaring": 6204,
      "Ġfact": 6205,
      "Ġfaced": 6206,
      "Ġfabric": 6207,
      "Ġwhatever": 6208,
      "ĠEnjoy": 6209,
      "Ġlava": 6210,
      "Ġflown": 6211,
      "Ġgoodnight": 6212,
      "ĠDoug": 6213,
      "Ġgrain": 6214,
      "Ġintrig": 6215,
      "Ġswirl": 6216,
      "Ġswooped": 6217,
      "ĠFro": 6218,
      "ĠFollow": 6219,
      "Ġpose": 6220,
      "Ġwilling": 6221,
      "Ġtru": 6222,
      "Ġtramp": 6223,
      "Ġknowled": 6224,
      "Ġpecked": 6225,
      "Ġsungl": 6226,
      "ishment": 6227,
      "Ġexplo": 6228,
      "Ġpuff": 6229,
      "osed": 6230,
      "Ġwaters": 6231,
      "ĠJoseph": 6232,
      "Ġquack": 6233,
      "ÅĵThis": 6234,
      "ÅĵHey": 6235,
      "ÅĵMy": 6236,
      "aster": 6237,
      "Ġadults": 6238,
      "Ġwatches": 6239,
      "Ġcomm": 6240,
      "ĠConnie": 6241,
      "ĠCounting": 6242,
      "aced": 6243,
      "oys": 6244,
      "Ġchef": 6245,
      "Ġteased": 6246,
      "Ġhardly": 6247,
      "Ġglitt": 6248,
      "Ġgloves": 6249,
      "Ġargu": 6250,
      "Ġsnuck": 6251,
      "Ġwindy": 6252,
      "Ġconfu": 6253,
      "ĠPancake": 6254,
      "ĠPixie": 6255,
      "Ġrocked": 6256,
      "Ġwonders": 6257,
      "Ġbeds": 6258,
      "Ġruining": 6259,
      "Ġcrop": 6260,
      "Ġunco": 6261,
      "Ġunex": 6262,
      "Ġstrongest": 6263,
      "Ġreplaced": 6264,
      "Ġcuriously": 6265,
      "Ġheading": 6266,
      "Ġdresses": 6267,
      "Ġfoods": 6268,
      "ĠNana": 6269,
      "ĠNora": 6270,
      "ĠNathan": 6271,
      "Ġwarmly": 6272,
      "Ġbrocc": 6273,
      "Ġdifference": 6274,
      "Ġnights": 6275,
      "Ġowners": 6276,
      "ĠRiley": 6277,
      "oli": 6278,
      "oline": 6279,
      "Afterwards": 6280,
      "Ġbehav": 6281,
      "Ġbehaving": 6282,
      "Ġfilling": 6283,
      "Ġsteep": 6284,
      "Ġourselves": 6285,
      "asses": 6286,
      "Ġcatching": 6287,
      "Ġspots": 6288,
      "Ġsinger": 6289,
      "Ġparties": 6290,
      "Ġsatis": 6291,
      "Ġelf": 6292,
      "Ġpennies": 6293,
      "Ġmarriage": 6294,
      "Ġtails": 6295,
      "ĠKari": 6296,
      "Ġpatience": 6297,
      "ĠwasnÃ¢": 6298,
      "Ġarmchair": 6299,
      "Ġsparkle": 6300,
      "Ġrolls": 6301,
      "Ġplanned": 6302,
      "Ġplanning": 6303,
      "Ġteaches": 6304,
      "lfie": 6305,
      "Ġbelts": 6306,
      "Ġbeloved": 6307,
      "Ġbathrobe": 6308,
      "raging": 6309,
      "elcome": 6310,
      "Ġpolitely": 6311,
      "Ġbelieved": 6312,
      "Ġmuscles": 6313,
      "Ġhighest": 6314,
      "Ġprove": 6315,
      "Ġdoctors": 6316,
      "Ġgentleman": 6317,
      "Ġsnowfl": 6318,
      "Ġhealing": 6319,
      "Ġmarkers": 6320,
      "Ġmint": 6321,
      "Ġlemons": 6322,
      "ĠCharles": 6323,
      "Ġinvit": 6324,
      "Ġinterested": 6325,
      "Ġspoons": 6326,
      "Ġcelebration": 6327,
      "Goodbye": 6328,
      "ĠwouldnÃ¢": 6329,
      "Ġstorms": 6330,
      "Ġcollection": 6331,
      "Ġsolut": 6332,
      "Ġracer": 6333,
      "Ġcomets": 6334,
      "Ġentrance": 6335,
      "ĠAlthough": 6336,
      "Ġstirring": 6337,
      "ĠBrad": 6338,
      "Ġserved": 6339,
      "Ġburrow": 6340,
      "untie": 6341,
      "Ġrecorded": 6342,
      "action": 6343,
      "perature": 6344,
      "Ġfrowning": 6345,
      "Ġprick": 6346,
      "Meow": 6347,
      "Ġscratched": 6348,
      "Ġpinch": 6349,
      "Ġhonk": 6350,
      "Ġdetermination": 6351,
      "Ġdecorated": 6352,
      "Ġdinosaurs": 6353,
      "Ġawo": 6354,
      "Ġawake": 6355,
      "Ġcardboard": 6356,
      "Ġsocks": 6357,
      "Ġskips": 6358,
      "Ġadding": 6359,
      "Ġedges": 6360,
      "Ġtwisting": 6361,
      "Ġhorns": 6362,
      "Ġsilence": 6363,
      "Ġpirates": 6364,
      "Ġsalt": 6365,
      "Ġmovies": 6366,
      "Ġkingdom": 6367,
      "Ġleaning": 6368,
      "Ġleader": 6369,
      "Ġleaks": 6370,
      "ĠMarc": 6371,
      "Ġglasses": 6372,
      "Ġstamps": 6373,
      "Ġsyrup": 6374,
      "Ġchopping": 6375,
      "Ġseconds": 6376,
      "ronaut": 6377,
      "Ġpedaled": 6378,
      "Ġprepared": 6379,
      "Ġpreparing": 6380,
      "Ready": 6381,
      "Ġtemperature": 6382,
      "Ġprayed": 6383,
      "Ġprayer": 6384,
      "Ġcombed": 6385,
      "Ġmelted": 6386,
      "Ġprovided": 6387,
      "Ġpandas": 6388,
      "Ġcompletely": 6389,
      "Ġshivering": 6390,
      "ĠWillow": 6391,
      "Ġcuddled": 6392,
      "Ġpupils": 6393,
      "ÅĵYouÃ¢": 6394,
      "Ġcheeks": 6395,
      "Ġphotos": 6396,
      "Mrs": 6397,
      "Ġcurled": 6398,
      "Ġshelter": 6399,
      "Ġreverse": 6400,
      "Ġreversed": 6401,
      "Ġreversing": 6402,
      "Ġmeasuring": 6403,
      "Ġencouraging": 6404,
      "Tweety": 6405,
      "Ġgazed": 6406,
      "Ġintroduced": 6407,
      "Ġpossess": 6408,
      "ĠCarla": 6409,
      "Ġincreased": 6410,
      "Ġstomped": 6411,
      "Ġstroked": 6412,
      "Ġinstrum": 6413,
      "ĠChirpy": 6414,
      "ĠChirpie": 6415,
      "Ġpitchfork": 6416,
      "Ġflavor": 6417,
      "Ġstruggle": 6418,
      "Ġsprinkles": 6419,
      "Ġdisturbed": 6420,
      "Ġtraveled": 6421,
      "Ġdrifted": 6422,
      "Ġfirefly": 6423,
      "Leo": 6424,
      "Ġastronaut": 6425,
      "ĠJuliet": 6426,
      "ĠNothing": 6427,
      "Ġtoddler": 6428,
      "Ġfirmly": 6429,
      "Ġcottage": 6430,
      "Ġcrystal": 6431,
      "ĠMickey": 6432,
      "Ġscolded": 6433,
      "Ġvictory": 6434,
      "Ġcrumbs": 6435,
      "Ġinstructions": 6436,
      "Carla": 6437,
      "Ġsituation": 6438,
      "Ġluxury": 6439,
      "aqui": 6440,
      "arissa": 6441,
      "ĠSanta": 6442,
      "Ġyelped": 6443,
      "ĠJacob": 6444,
      "Ġspooky": 6445,
      "Ġexhausted": 6446,
      "Ġscientist": 6447,
      "Ġintrigued": 6448,
      "Ġtrampoline": 6449,
      "Ġknowledge": 6450,
      "Ġsunglasses": 6451,
      "Ġarguing": 6452,
      "Ġunexpected": 6453,
      "Ġbroccoli": 6454,
      "Ġbehavi": 6455,
      "!'": 6456,
      "!'.": 6457,
      "--": 6458,
      "An": 6459,
      "Ayla": 6460,
      "Boo": 6461,
      "Back": 6462,
      "Bee": 6463,
      "Cl": 6464,
      "Cat": 6465,
      "Ell": 6466,
      "Great": 6467,
      "Honey": 6468,
      "Joy": 6469,
      "Like": 6470,
      "Lizzie": 6471,
      "Mick": 6472,
      "Maia": 6473,
      "Rita": 6474,
      "Shh": 6475,
      "Sophia": 6476,
      "Tr": 6477,
      "Ted": 6478,
      "Take": 6479,
      "Teddy": 6480,
      "Woof": 6481,
      "Whee": 6482,
      "aig": 6483,
      "aired": 6484,
      "bage": 6485,
      "cl": 6486,
      "cing": 6487,
      "die": 6488,
      "dies": 6489,
      "ebby": 6490,
      "gg": 6491,
      "house": 6492,
      "hia": 6493,
      "ivery": 6494,
      "ial": 6495,
      "ker": 6496,
      "kle": 6497,
      "lish": 6498,
      "mag": 6499,
      "mered": 6500,
      "na": 6501,
      "rr": 6502,
      "rop": 6503,
      "ruct": 6504,
      "tuce": 6505,
      "uing": 6506,
      "use": 6507,
      "vast": 6508,
      "vince": 6509,
      "web": 6510,
      "ynt": 6511,
      "Â±": 6512,
      "ĠOh": 6513,
      "ĠYouth": 6514,
      "hello": 6515,
      "Ġtv": 6516,
      "Ġtuck": 6517,
      "Ġtax": 6518,
      "Ġtumm": 6519,
      "Ġais": 6520,
      "Ġaim": 6521,
      "Ġsou": 6522,
      "Ġsens": 6523,
      "Ġsib": 6524,
      "Ġwine": 6525,
      "Ġtheat": 6526,
      "Ġbun": 6527,
      "Ġbound": 6528,
      "Ġbak": 6529,
      "Ġbars": 6530,
      "Ġtour": 6531,
      "Ġwaff": 6532,
      "reen": 6533,
      "rees": 6534,
      "Ġfif": 6535,
      "ouise": 6536,
      "Ġlab": 6537,
      "Ġlined": 6538,
      "Ġcal": 6539,
      "ero": 6540,
      "eral": 6541,
      "erma": 6542,
      "erator": 6543,
      "Ġden": 6544,
      "Ġdet": 6545,
      "Ġdie": 6546,
      "Ġwasted": 6547,
      "Ġmass": 6548,
      "Ġmerma": 6549,
      "Ġpitc": 6550,
      "Ġpanic": 6551,
      "omas": 6552,
      "ĠTake": 6553,
      "ĠTaking": 6554,
      "ĠTina": 6555,
      "ishing": 6556,
      "Ġgon": 6557,
      "Ġgator": 6558,
      "ilbur": 6559,
      "ences": 6560,
      "engers": 6561,
      "atches": 6562,
      "ĠSay": 6563,
      "ĠSorry": 6564,
      "ĠSkip": 6565,
      "iment": 6566,
      "ĠThese": 6567,
      "onse": 6568,
      "lled": 6569,
      "ĠHalley": 6570,
      "ĠHallow": 6571,
      "ĠHarry": 6572,
      "ĠHugs": 6573,
      "etah": 6574,
      "oto": 6575,
      "Ġinter": 6576,
      "Ġech": 6577,
      "Ġeast": 6578,
      "Ġease": 6579,
      "ooster": 6580,
      "Ġyield": 6581,
      "Ġrow": 6582,
      "Ġrumble": 6583,
      "Ġrooster": 6584,
      "Ġbegs": 6585,
      "Ġstall": 6586,
      "Ġstair": 6587,
      "Ġstalk": 6588,
      "Ġstern": 6589,
      "ambled": 6590,
      "Ġsobbed": 6591,
      "Ġhissed": 6592,
      "ripe": 6593,
      "Ġplucked": 6594,
      "ading": 6595,
      "ades": 6596,
      "adly": 6597,
      "ados": 6598,
      "ĠLouise": 6599,
      "ĠweÃ¢": 6600,
      "itted": 6601,
      "Ġlie": 6602,
      "Ġlied": 6603,
      "chief": 6604,
      "Ġshoo": 6605,
      "Ġshave": 6606,
      "Ġshield": 6607,
      "Ġsmas": 6608,
      "sequ": 6609,
      "Ġkittens": 6610,
      "Ġrejo": 6611,
      "ĠMe": 6612,
      "ĠMel": 6613,
      "ĠMouse": 6614,
      "ĠMabel": 6615,
      "ĠMany": 6616,
      "ĠMinnie": 6617,
      "ĠMartin": 6618,
      "ĠMoni": 6619,
      "Ġankle": 6620,
      "Ġsawing": 6621,
      "Ġloop": 6622,
      "eca": 6623,
      "Ġbog": 6624,
      "ĠJamie": 6625,
      "ĠJaqui": 6626,
      "Ġloving": 6627,
      "Ġspy": 6628,
      "ĠAlfie": 6629,
      "ĠAuntie": 6630,
      "Ġaren": 6631,
      "icular": 6632,
      "ighting": 6633,
      "Ġnoon": 6634,
      "Ġmeow": 6635,
      "Ġmemb": 6636,
      "Ġrobb": 6637,
      "asp": 6638,
      "itedly": 6639,
      "Ġago": 6640,
      "ĠWater": 6641,
      "ĠWatch": 6642,
      "ĠWinnie": 6643,
      "ably": 6644,
      "abra": 6645,
      "Ġcarries": 6646,
      "Ġcosy": 6647,
      "Ġlawn": 6648,
      "Ġflat": 6649,
      "Ġflas": 6650,
      "Ġchuck": 6651,
      "Ġchips": 6652,
      "Ġdecl": 6653,
      "Ġgoodby": 6654,
      "ĠDebby": 6655,
      "ooks": 6656,
      "usty": 6657,
      "Ġdads": 6658,
      "Ġyourselves": 6659,
      "Ġgrapes": 6660,
      "Ġsweep": 6661,
      "Ġpost": 6662,
      "Ġpoking": 6663,
      "Ġposit": 6664,
      "Ġcatches": 6665,
      "Ġpeck": 6666,
      "Ġpeel": 6667,
      "obody": 6668,
      "Ġsunsc": 6669,
      "Ġtwin": 6670,
      "Ġfond": 6671,
      "Ġfoal": 6672,
      "Ġstrings": 6673,
      "ÅĵWow": 6674,
      "ÅĵWhere": 6675,
      "ÅĵWell": 6676,
      "Ġopt": 6677,
      "Ġcalls": 6678,
      "Ġhandker": 6679,
      "ĠSol": 6680,
      "Ġeats": 6681,
      "Ġflowing": 6682,
      "Ġslices": 6683,
      "emon": 6684,
      "ĠCow": 6685,
      "ĠCopper": 6686,
      "Ġcheetah": 6687,
      "Ġgranted": 6688,
      "Ġtease": 6689,
      "Ġglitter": 6690,
      "Ġglimmering": 6691,
      "Ġsne": 6692,
      "Ġsnugg": 6693,
      "Ġlettuce": 6694,
      "Ġconvers": 6695,
      "Ġconvince": 6696,
      "Ġconsequ": 6697,
      "ĠPoor": 6698,
      "Ġthrown": 6699,
      "Ġdelivery": 6700,
      "Ġrushing": 6701,
      "Ġworker": 6702,
      "Ġunf": 6703,
      "Ġunw": 6704,
      "Ġunripe": 6705,
      "Ġclimbs": 6706,
      "ffled": 6707,
      "Johnny": 6708,
      "Ġwaiter": 6709,
      "Ġremembering": 6710,
      "ngie": 6711,
      "Ġdevast": 6712,
      "Ġyells": 6713,
      "Ġheadache": 6714,
      "ĠNick": 6715,
      "Ġrainy": 6716,
      "Ġrained": 6717,
      "Ġdifferently": 6718,
      "Ġusual": 6719,
      "Ġowns": 6720,
      "ĠRibbit": 6721,
      "ĠRusty": 6722,
      "Ġgrassy": 6723,
      "Ġsticking": 6724,
      "Ġparent": 6725,
      "Ġdarker": 6726,
      "Ġzero": 6727,
      "Ġstew": 6728,
      "Ġsteady": 6729,
      "Ġblocked": 6730,
      "Ġours": 6731,
      "ĠThomas": 6732,
      "three": 6733,
      "Ġdripping": 6734,
      "Ġcolder": 6735,
      "Ġparticular": 6736,
      "Ġtouching": 6737,
      "Ġhearing": 6738,
      "Ġcreating": 6739,
      "Ġcreation": 6740,
      "Ġcreativ": 6741,
      "Ġbusiness": 6742,
      "Ġcontinue": 6743,
      "Ġunderstands": 6744,
      "spect": 6745,
      "Ġbuying": 6746,
      "Ġcounts": 6747,
      "boat": 6748,
      "ĠKeep": 6749,
      "meal": 6750,
      "Ġseems": 6751,
      "Ġsisters": 6752,
      "Ġowned": 6753,
      "Ġgrowling": 6754,
      "Ġtalks": 6755,
      "Ġneighbours": 6756,
      "Ġmatched": 6757,
      "umbling": 6758,
      "Ġsits": 6759,
      "Ġbuckets": 6760,
      "Ġyounger": 6761,
      "Ġsnowball": 6762,
      "Ġpaths": 6763,
      "Ġnaughtiness": 6764,
      "ounced": 6765,
      "Ġcrashed": 6766,
      "Ġcrashing": 6767,
      "Ġhealth": 6768,
      "ugging": 6769,
      "Ġpockets": 6770,
      "Ġdragged": 6771,
      "Ġdragons": 6772,
      "Ġsprang": 6773,
      "Ġexpress": 6774,
      "Ġmailed": 6775,
      "Ġrespond": 6776,
      "Ġresponse": 6777,
      "Ġrepaired": 6778,
      "Ġreturning": 6779,
      "Ġfits": 6780,
      "Ġpeacefully": 6781,
      "Ġinvol": 6782,
      "ĠWithout": 6783,
      "Ġmysteries": 6784,
      "Ġfolders": 6785,
      "Ġhits": 6786,
      "Ġlifts": 6787,
      "Ġlifting": 6788,
      "Ġafar": 6789,
      "Ġpassing": 6790,
      "Ġpassengers": 6791,
      "Ġsolving": 6792,
      "Ġanger": 6793,
      "Ġracers": 6794,
      "Ġforgetting": 6795,
      "Ġdiving": 6796,
      "Ġacted": 6797,
      "Ġactive": 6798,
      "Ġcalmed": 6799,
      "Ġgarbage": 6800,
      "Ġdriveway": 6801,
      "ertain": 6802,
      "Ġbells": 6803,
      "Ġwandering": 6804,
      "ĠStan": 6805,
      "Ġcrossing": 6806,
      "Ġmedal": 6807,
      "ĠBeing": 6808,
      "ĠBeartie": 6809,
      "Ġpizzas": 6810,
      "Ġembarrass": 6811,
      "Ġchews": 6812,
      "Ġregister": 6813,
      "Ġtidying": 6814,
      "Ġcowb": 6815,
      "Ġstuffing": 6816,
      "Ġghosts": 6817,
      "Ġparked": 6818,
      "Ġprices": 6819,
      "Meanwhile": 6820,
      "Ġfeeding": 6821,
      "Ġscratches": 6822,
      "Ġscrambled": 6823,
      "Ġroads": 6824,
      "ĠFreddie": 6825,
      "Ġterrified": 6826,
      "Ġmaid": 6827,
      "Ġdrums": 6828,
      "Ġpleaded": 6829,
      "Ġrepeated": 6830,
      "Ġrepeating": 6831,
      "Ġaddress": 6832,
      "Ġsupposed": 6833,
      "Ġwipes": 6834,
      "ĠSnail": 6835,
      "Ġtickle": 6836,
      "Ġperforming": 6837,
      "Ġthreads": 6838,
      "ĠMarlon": 6839,
      "Ġpebbles": 6840,
      "peat": 6841,
      "Ġstealing": 6842,
      "Ġpedals": 6843,
      "Ġcomplained": 6844,
      "Remy": 6845,
      "Ġtempt": 6846,
      "Ġclaps": 6847,
      "Ġvanish": 6848,
      "Ġvanilla": 6849,
      "Ġsymbols": 6850,
      "Ġvehicles": 6851,
      "Ġguessed": 6852,
      "Ġinclude": 6853,
      "Ġincluding": 6854,
      "Ġherbs": 6855,
      "Ġstrip": 6856,
      "Ġpenguins": 6857,
      "ĠMaya": 6858,
      "Ġspits": 6859,
      "Ġexplaining": 6860,
      "Ġpumpkins": 6861,
      "Ġprettier": 6862,
      "Ġsurroundings": 6863,
      "Ġoatmeal": 6864,
      "Ġtrembled": 6865,
      "Ġapplaud": 6866,
      "Ġhelmets": 6867,
      "Ġavocados": 6868,
      "gency": 6869,
      "Ġclubs": 6870,
      "Ġappreciated": 6871,
      "Quick": 6872,
      "hells": 6873,
      "Ġrusty": 6874,
      "Ġrustling": 6875,
      "ĠEllen": 6876,
      "Ġbalanced": 6877,
      "Ġseason": 6878,
      "Ġseashells": 6879,
      "Ġflavors": 6880,
      "Ġkneeled": 6881,
      "ĠMargo": 6882,
      "ĠAbigail": 6883,
      "Ġsucceeded": 6884,
      "Ġwiggly": 6885,
      "ĠJulia": 6886,
      "Ġsneaky": 6887,
      "Ġdirections": 6888,
      "Ġtoddlers": 6889,
      "Excuse": 6890,
      "Excitedly": 6891,
      "Ġsighs": 6892,
      "Ġchooses": 6893,
      "Ġaccomplished": 6894,
      "ĠBirthday": 6895,
      "Ġannoy": 6896,
      "ĠGoodbye": 6897,
      "Ġcrunchy": 6898,
      "Katy": 6899,
      "Ġwidened": 6900,
      "Ġfetch": 6901,
      "Ġpouted": 6902,
      "Ġreassured": 6903,
      "Ġcobweb": 6904,
      "Ġcubes": 6905,
      "Ġconcent": 6906,
      "Ġconnected": 6907,
      "Ġpaintbrush": 6908,
      "Julie": 6909,
      "rupt": 6910,
      "Ġtimer": 6911,
      "Ġfreedom": 6912,
      "Ġoccas": 6913,
      "Ġglee": 6914,
      "Ġbolt": 6915,
      "Ġtruly": 6916,
      "Ġchefs": 6917,
      "Ġglittered": 6918,
      "Ġsnowflakes": 6919,
      "Ġinvitation": 6920,
      "Ġsolution": 6921,
      "Ġprickly": 6922,
      "Ġinstruments": 6923,
      "aige": 6924,
      "ruction": 6925,
      "ynthia": 6926,
      "Ġtaxi": 6927,
      "Ġtummies": 6928,
      "Ġsiblings": 6929,
      "Ġtheatre": 6930,
      "Ġbunnies": 6931,
      "Ġbakery": 6932,
      "Ġwaffles": 6933,
      "Ġmermaid": 6934,
      "Ġpitcher": 6935,
      "Ġgonna": 6936,
      "ĠHalloween": 6937,
      "Ġinterrupt": 6938,
      "Ġsmashed": 6939,
      "Ġmembers": 6940,
      "Ġchuckled": 6941,
      "Ġgoodbyes": 6942,
      "Ġsunscreen": 6943,
      "Ġhandkerchief": 6944,
      "Ġsnuggle": 6945,
      "Ġconversation": 6946,
      "Ġdevastated": 6947,
      "Ġcreativity": 6948,
      "Ġresponded": 6949,
      "'?\"": 6950,
      "Abbie": 6951,
      "Ahh": 6952,
      "Br": 6953,
      "Bad": 6954,
      "Bill": 6955,
      "Buzzy": 6956,
      "Even": 6957,
      "Ernie": 6958,
      "Gavin": 6959,
      "Ginger": 6960,
      "Kim": 6961,
      "Kimmy": 6962,
      "Lilly": 6963,
      "May": 6964,
      "Milly": 6965,
      "Mae": 6966,
      "Michelle": 6967,
      "Nancy": 6968,
      "Pat": 6969,
      "Pinky": 6970,
      "Papa": 6971,
      "Paul": 6972,
      "Ro": 6973,
      "Rain": 6974,
      "Sn": 6975,
      "Since": 6976,
      "Suzy": 6977,
      "Too": 6978,
      "Tony": 6979,
      "VD": 6980,
      "Wh": 6981,
      "Welcome": 6982,
      "Yep": 6983,
      "Zoomy": 6984,
      "bs": 6985,
      "bed": 6986,
      "bly": 6987,
      "book": 6988,
      "con": 6989,
      "cad": 6990,
      "cher": 6991,
      "cup": 6992,
      "dles": 6993,
      "eight": 6994,
      "fin": 6995,
      "free": 6996,
      "four": 6997,
      "five": 6998,
      "hi": 6999,
      "hor": 7000,
      "ian": 7001,
      "iel": 7002,
      "lock": 7003,
      "mark": 7004,
      "match": 7005,
      "no": 7006,
      "nes": 7007,
      "nine": 7008,
      "son": 7009,
      "sure": 7010,
      "six": 7011,
      "teen": 7012,
      "two": 7013,
      "ussed": 7014,
      "wim": 7015,
      "ware": 7016,
      "water": 7017,
      "woof": 7018,
      "yan": 7019,
      "yes": 7020,
      "years": 7021,
      "zzy": 7022,
      "Ġ2": 7023,
      "ĠĠ": 7024,
      "Ġill": 7025,
      "ĠYum": 7026,
      "ĠÃĤ": 7027,
      "hew": 7028,
      "Ġting": 7029,
      "Ġtap": 7030,
      "Ġtiss": 7031,
      "Ġtapping": 7032,
      "Ġtaped": 7033,
      "Ġaff": 7034,
      "Ġaimed": 7035,
      "Ġsi": 7036,
      "Ġsus": 7037,
      "Ġwow": 7038,
      "Ġwound": 7039,
      "Ġwool": 7040,
      "ednes": 7041,
      "Ġbom": 7042,
      "Ġble": 7043,
      "Ġboo": 7044,
      "Ġborn": 7045,
      "Ġbumpy": 7046,
      "Ġbrick": 7047,
      "Ġtoil": 7048,
      "Ġhur": 7049,
      "Ġhitting": 7050,
      "Ġhips": 7051,
      "Ġwaded": 7052,
      "repeat": 7053,
      "Ġfain": 7054,
      "Ġfare": 7055,
      "Ġfara": 7056,
      "Ġlun": 7057,
      "Ġlent": 7058,
      "Ġcent": 7059,
      "Ġcro": 7060,
      "Ġcust": 7061,
      "Ġcash": 7062,
      "Ġcaused": 7063,
      "Ġcertain": 7064,
      "eriment": 7065,
      "Ġheel": 7066,
      "Ġheav": 7067,
      "Ġdipped": 7068,
      "Ġdips": 7069,
      "Ġmater": 7070,
      "Ġmunch": 7071,
      "Ġmitten": 7072,
      "Ġpal": 7073,
      "Ġpuck": 7074,
      "Ġpanc": 7075,
      "Ġpony": 7076,
      "Ġoh": 7077,
      "Ġopp": 7078,
      "ĠTiny": 7079,
      "ĠToto": 7080,
      "isions": 7081,
      "Ġgest": 7082,
      "Ġgorge": 7083,
      "ids": 7084,
      "idence": 7085,
      "iled": 7086,
      "ility": 7087,
      "atur": 7088,
      "atitude": 7089,
      "Ġsav": 7090,
      "Ġsale": 7091,
      "Ġsadd": 7092,
      "Ġnibb": 7093,
      "ĠSpl": 7094,
      "ĠSweet": 7095,
      "ĠSkeleton": 7096,
      "ĠSimon": 7097,
      "ĠSwim": 7098,
      "anish": 7099,
      "aniel": 7100,
      "onished": 7101,
      "orking": 7102,
      "lling": 7103,
      "Ġthous": 7104,
      "Ġthreat": 7105,
      "ĠHannah": 7106,
      "ĠHello": 7107,
      "otted": 7108,
      "esome": 7109,
      "espite": 7110,
      "Ġinj": 7111,
      "Ġinse": 7112,
      "Ġelev": 7113,
      "Ġrum": 7114,
      "Ġrisk": 7115,
      "Ġbellow": 7116,
      "Ġstur": 7117,
      "rip": 7118,
      "sty": 7119,
      "stick": 7120,
      "step": 7121,
      "struction": 7122,
      "Ġplayroom": 7123,
      "ĠBoo": 7124,
      "ĠBoom": 7125,
      "ĠBird": 7126,
      "ĠmomÃ¢": 7127,
      "Ġshallow": 7128,
      "ended": 7129,
      "endant": 7130,
      "Ġwhirl": 7131,
      "Ġwhoosh": 7132,
      "seven": 7133,
      "Ġkit": 7134,
      "Ġdod": 7135,
      "Ġreaction": 7136,
      "Ġneare": 7137,
      "Ġnecess": 7138,
      "Ġneither": 7139,
      "alph": 7140,
      "ĠMaia": 7141,
      "Ġgirls": 7142,
      "Ġsped": 7143,
      "Ġspat": 7144,
      "Ġexch": 7145,
      "indrop": 7146,
      "ĠAngie": 7147,
      "Ġallow": 7148,
      "Ġknives": 7149,
      "Ġclut": 7150,
      "Ġleast": 7151,
      "Ġaloud": 7152,
      "Ġbride": 7153,
      "Ġscri": 7154,
      "Ġscra": 7155,
      "Ġscurry": 7156,
      "Ġroast": 7157,
      "Ġroars": 7158,
      "Ġage": 7159,
      "Ġagrees": 7160,
      "ĠWilbur": 7161,
      "ĠWednes": 7162,
      "ĠEx": 7163,
      "ĠEng": 7164,
      "Ġcocon": 7165,
      "Ġlap": 7166,
      "Ġhomeless": 7167,
      "Ġflames": 7168,
      "Ġwhoever": 7169,
      "Ġdecisions": 7170,
      "Ġeverybody": 7171,
      "Ġvess": 7172,
      "ĠDory": 7173,
      "ĠDVD": 7174,
      "ĠDaniel": 7175,
      "Ġthanking": 7176,
      "Ġbud": 7177,
      "uddles": 7178,
      "ndered": 7179,
      "Ġcares": 7180,
      "apot": 7181,
      "ĠFor": 7182,
      "Ġcatcher": 7183,
      "Ġprey": 7184,
      "Ġwillow": 7185,
      "Ġtraded": 7186,
      "Ġtrotted": 7187,
      "Ġpeak": 7188,
      "ĠEverybody": 7189,
      "ishy": 7190,
      "Ġhowever": 7191,
      "Ġenem": 7192,
      "ĠJody": 7193,
      "ĠJojo": 7194,
      "ÅĵBut": 7195,
      "ÅĵGood": 7196,
      "ÅĵOf": 7197,
      "ÅĵSt": 7198,
      "ÅĵMummy": 7199,
      "ÅĵMe": 7200,
      "ÅĵSee": 7201,
      "Ġsorted": 7202,
      "Ġopin": 7203,
      "Ġadj": 7204,
      "Ġadult": 7205,
      "Ġhanding": 7206,
      "Ġslice": 7207,
      "Ġslither": 7208,
      "empt": 7209,
      "Ġneedles": 7210,
      "Ġgardener": 7211,
      "ĠCurious": 7212,
      "ĠCynthia": 7213,
      "Yesterday": 7214,
      "Ġends": 7215,
      "Ġbraver": 7216,
      "Ġcheap": 7217,
      "Ġcleared": 7218,
      "Ġgrant": 7219,
      "Ġgratitude": 7220,
      "Ġtexture": 7221,
      "Ġteasp": 7222,
      "Ġteapot": 7223,
      "Ġunderwater": 7224,
      "Ġsnar": 7225,
      "Ġsnoo": 7226,
      "Ġsurprising": 7227,
      "Ġdollhouse": 7228,
      "Ġloudest": 7229,
      "cts": 7230,
      "Ġfins": 7231,
      "Ġfinal": 7232,
      "Ġremove": 7233,
      "ipes": 7234,
      "ĠBobbie": 7235,
      "Ġstormy": 7236,
      "Timothy": 7237,
      "Ġshoulders": 7238,
      "ĠPut": 7239,
      "ĠPerc": 7240,
      "ĠPaige": 7241,
      "ĠPuddles": 7242,
      "ĠGirl": 7243,
      "ĠGinger": 7244,
      "Ġimposs": 7245,
      "Ġruin": 7246,
      "Ġunited": 7247,
      "Ġunable": 7248,
      "Ġunison": 7249,
      "Ġunsure": 7250,
      "Ġafterwards": 7251,
      "Ġrealizes": 7252,
      "ĠSpirit": 7253,
      "ĠSpanish": 7254,
      "Ġsquirt": 7255,
      "Ġsquinted": 7256,
      "Ġsquaw": 7257,
      "Ġsqueak": 7258,
      "Ġsquishy": 7259,
      "Ġdefin": 7260,
      "ĠNobody": 7261,
      "ĠJohnson": 7262,
      "Ġrains": 7263,
      "Ġrainco": 7264,
      "Ġsweetest": 7265,
      "ushed": 7266,
      "Ġache": 7267,
      "ĠSueÃ¢": 7268,
      "Ġtoward": 7269,
      "Ġuses": 7270,
      "ĠRita": 7271,
      "ĠRyan": 7272,
      "ĠRalph": 7273,
      "Ġsmelling": 7274,
      "Ġtasting": 7275,
      "Ġfills": 7276,
      "Ġfloats": 7277,
      "Ġamong": 7278,
      "Ġstepping": 7279,
      "Ġblocking": 7280,
      "Ġsails": 7281,
      "Ġsailboat": 7282,
      "Ġstorybook": 7283,
      "Ġresting": 7284,
      "Ġrestored": 7285,
      "ths": 7286,
      "Ġforgives": 7287,
      "ĠThatÃ¢": 7288,
      "Ġdining": 7289,
      "Ġdraws": 7290,
      "Ġdrives": 7291,
      "Ġtripping": 7292,
      "Ġtrips": 7293,
      "Ġlioness": 7294,
      "Ġseesaw": 7295,
      "retty": 7296,
      "Ġparted": 7297,
      "Ġpetal": 7298,
      "Ġpetting": 7299,
      "Ġfairies": 7300,
      "Ġcreations": 7301,
      "Ġvegg": 7302,
      "Ġcompared": 7303,
      "Ġsecure": 7304,
      "ĠKing": 7305,
      "ĠKen": 7306,
      "ĠKimmy": 7307,
      "Ġsideways": 7308,
      "ĠTodd": 7309,
      "Ġbookshe": 7310,
      "Ġduckling": 7311,
      "Ġplans": 7312,
      "Ġpointy": 7313,
      "Ġbaths": 7314,
      "Ġteachers": 7315,
      "Ġquieter": 7316,
      "Ġquietest": 7317,
      "Ġguy": 7318,
      "Ġpolar": 7319,
      "Ġjoining": 7320,
      "Ġattack": 7321,
      "Ġattendant": 7322,
      "Ġattempt": 7323,
      "Ġplanting": 7324,
      "Ġseahor": 7325,
      "brant": 7326,
      "Ġfreezing": 7327,
      "Ġraked": 7328,
      "Ġraises": 7329,
      "Ġraindrop": 7330,
      "Does": 7331,
      "Bobo": 7332,
      "Bobbie": 7333,
      "Ġprod": 7334,
      "Ġyoungest": 7335,
      "Ġsnowy": 7336,
      "Ġsacks": 7337,
      "Ġbubbly": 7338,
      "Ġscreaming": 7339,
      "Ġmineral": 7340,
      "Ġdragging": 7341,
      "Ġdrying": 7342,
      "Ġtreated": 7343,
      "Ġwinning": 7344,
      "Ġsprings": 7345,
      "Ġexpect": 7346,
      "Ġexperiment": 7347,
      "clever": 7348,
      "Ġbushy": 7349,
      "Ġpractising": 7350,
      "Ġbelongings": 7351,
      "Ġbenches": 7352,
      "Ġgiggles": 7353,
      "Ġinviting": 7354,
      "Ġdesig": 7355,
      "Ġdesper": 7356,
      "Ġdespite": 7357,
      "Ġspoonful": 7358,
      "Ġrainbows": 7359,
      "Ġdrivers": 7360,
      "Goodnight": 7361,
      "Ġkeys": 7362,
      "Ġsplashes": 7363,
      "Ġangrily": 7364,
      "Ġbowls": 7365,
      "Ġrespected": 7366,
      "Ġelephants": 7367,
      "Ġacting": 7368,
      "Ġactions": 7369,
      "Ġcalmly": 7370,
      "Ġgranddad": 7371,
      "Ġmoonwalk": 7372,
      "Stella": 7373,
      "Ġburger": 7374,
      "ĠStay": 7375,
      "ĠStop": 7376,
      "Ġtidied": 7377,
      "Ġbaked": 7378,
      "Ġmatters": 7379,
      "Ġchairs": 7380,
      "Ġtested": 7381,
      "Ġkayaking": 7382,
      "Ġspreading": 7383,
      "Ġglows": 7384,
      "Ġscrub": 7385,
      "Ġspeeding": 7386,
      "Beartie": 7387,
      "Ġpinched": 7388,
      "Ġjackets": 7389,
      "Ġawesome": 7390,
      "Ġpiled": 7391,
      "Ġsoapy": 7392,
      "Ġlocks": 7393,
      "Ġjogging": 7394,
      "Ġnecklaces": 7395,
      "However": 7396,
      "creams": 7397,
      "Ġtigers": 7398,
      "Ġwishing": 7399,
      "Ġpleasure": 7400,
      "ooping": 7401,
      "Ġlizards": 7402,
      "Ġloading": 7403,
      "Ġmotion": 7404,
      "Ġsights": 7405,
      "Ġmillion": 7406,
      "Ġpops": 7407,
      "Ġclearly": 7408,
      "Ġguardian": 7409,
      "Ġnervously": 7410,
      "Ġsalty": 7411,
      "Ġsniffs": 7412,
      "Ġsniffing": 7413,
      "ĠOutside": 7414,
      "Ġtickling": 7415,
      "Ġfuzzy": 7416,
      "Ġvibrant": 7417,
      "Alvin": 7418,
      "Ġrefrig": 7419,
      "Ġreflect": 7420,
      "Ġleading": 7421,
      "Ġtunnels": 7422,
      "Whoa": 7423,
      "Ġzookeeper": 7424,
      "Ġdiamonds": 7425,
      "Emilda": 7426,
      "Ġpadlock": 7427,
      "Ġcovers": 7428,
      "Ġcovering": 7429,
      "Ġspraying": 7430,
      "Ġbumps": 7431,
      "ironment": 7432,
      "Ġpencils": 7433,
      "Ġhungrily": 7434,
      "Ġchopped": 7435,
      "Ġcourageous": 7436,
      "Chris": 7437,
      "Ġbarking": 7438,
      "Ġrescuing": 7439,
      "Ġcrawls": 7440,
      "ĠUnder": 7441,
      "Ġenvironment": 7442,
      "Ġsoldier": 7443,
      "Ġimproving": 7444,
      "Ġstretching": 7445,
      "ĠZizz": 7446,
      "Ġfortune": 7447,
      "Ġenvelopes": 7448,
      "Isn": 7449,
      "Ġcopy": 7450,
      "ĠSharing": 7451,
      "Ġobserving": 7452,
      "lowers": 7453,
      "Ġcamping": 7454,
      "ricane": 7455,
      "Ġshivered": 7456,
      "Ġbrushing": 7457,
      "Ġsunsets": 7458,
      "Ġstudents": 7459,
      "Ġthumbs": 7460,
      "Ġlicking": 7461,
      "Ġscattering": 7462,
      "Ġsupermark": 7463,
      "Ġcrew": 7464,
      "Ġcauliflowers": 7465,
      "Ġchatted": 7466,
      "Ġporcup": 7467,
      "Ġinsisting": 7468,
      "Ġdelayed": 7469,
      "Ġrecognize": 7470,
      "Tweetie": 7471,
      "Ġcaution": 7472,
      "Ġneatly": 7473,
      "Ġnewspapers": 7474,
      "Ġdelivered": 7475,
      "Ġexperien": 7476,
      "Ġdesigns": 7477,
      "Ġsurrendered": 7478,
      "Ġfilms": 7479,
      "Ġsewed": 7480,
      "Ġtwinkle": 7481,
      "Ġtwinkled": 7482,
      "Ġdiscussed": 7483,
      "ĠInstantly": 7484,
      "Ġsurfboard": 7485,
      "ibly": 7486,
      "ibility": 7487,
      "Ġcousins": 7488,
      "Ġpans": 7489,
      "ĠMatty": 7490,
      "Ġsprinkle": 7491,
      "Ġdisturbing": 7492,
      "Ġefforts": 7493,
      "Marlon": 7494,
      "Ġbridle": 7495,
      "Ġwarnings": 7496,
      "Ġfireflies": 7497,
      "Ġastonished": 7498,
      "Ġwiggle": 7499,
      "Ġclicked": 7500,
      "Ġcountryside": 7501,
      "ĠKaty": 7502,
      "Ġdiscussing": 7503,
      "Ġdirection": 7504,
      "Ġcotton": 7505,
      "ĠBye": 7506,
      "Ġresult": 7507,
      "Ġresults": 7508,
      "ĠAnother": 7509,
      "Ġchoosing": 7510,
      "Ġbuzzed": 7511,
      "ÅĵWeÃ¢": 7512,
      "Ġcrystals": 7513,
      "Ġswimsuit": 7514,
      "Ġaccomplishment": 7515,
      "Ġtargets": 7516,
      "Ġobeyed": 7517,
      "AAAA": 7518,
      "Ġwobbly": 7519,
      "Ġuntied": 7520,
      "ĠBirdy": 7521,
      "Ġcrunching": 7522,
      "Ġgreeted": 7523,
      "Chirpie": 7524,
      "Ġemerged": 7525,
      "Ġemergency": 7526,
      "Ġconfident": 7527,
      "Ġconfidence": 7528,
      "Ġguests": 7529,
      "Ġresponsible": 7530,
      "Ġresponsibility": 7531,
      "ĠOwl": 7532,
      "Abigail": 7533,
      "Julia": 7534,
      "Ġhuman": 7535,
      "Ġdarling": 7536,
      "Ġgallery": 7537,
      "Ġlocal": 7538,
      "Ġspilling": 7539,
      "Ġleapt": 7540,
      "ĠFrosty": 7541,
      "Ġexploded": 7542,
      "Ġcommun": 7543,
      "Ġconfusing": 7544,
      "Ġuncovered": 7545,
      "Ġsatisfied": 7546,
      "Ġawoken": 7547,
      "Ġpossessions": 7548,
      "Ġbehavior": 7549,
      "Clarissa": 7550,
      "Micky": 7551,
      "Ġaisle": 7552,
      "Ġcalf": 7553,
      "Ġdetail": 7554,
      "Ġmassage": 7555,
      "Ġechoed": 7556,
      "Ġstalks": 7557,
      "Ġrejoiced": 7558,
      "Ġdeclared": 7559,
      "Ġglittering": 7560,
      "Ġsneaked": 7561,
      "Ġconsequences": 7562,
      "Ġexpression": 7563,
      "Ġannoyed": 7564,
      "Ġconcentrated": 7565,
      "Ġoccasion": 7566,
      "Roar": 7567,
      "cadabra": 7568,
      "Ġafford": 7569,
      "Ġsusp": 7570,
      "Ġbomb": 7571,
      "Ġtoilet": 7572,
      "Ġhurricane": 7573,
      "Ġfaint": 7574,
      "Ġfarewell": 7575,
      "Ġfaraway": 7576,
      "Ġlungs": 7577,
      "Ġcustom": 7578,
      "Ġheavier": 7579,
      "Ġpalace": 7580,
      "Ġpancakes": 7581,
      "Ġgesture": 7582,
      "Ġgorgeous": 7583,
      "Ġsaddle": 7584,
      "Ġthousand": 7585,
      "Ġelevator": 7586,
      "Ġrumour": 7587,
      "Ġrisks": 7588,
      "Ġbellowed": 7589,
      "Ġsturdy": 7590,
      "Ġscurrying": 7591,
      "ĠWednesday": 7592,
      "ĠEnglish": 7593,
      "Ġcoconut": 7594,
      "Ġvessel": 7595,
      "Ġenemies": 7596,
      "Ġteaspoon": 7597,
      "ĠPercy": 7598,
      "Ġimpossible": 7599,
      "Ġdefinitely": 7600,
      "Ġraincoat": 7601,
      "Ġveggies": 7602,
      "Ġattempts": 7603,
      "Ġseahorse": 7604,
      "Ġraindrops": 7605,
      "Ġrefrigerator": 7606,
      "Ġreflection": 7607,
      "Ġsupermarket": 7608,
      "Ġporcupine": 7609,
      "',": 7610,
      ",'": 7611,
      "?!": 7612,
      "AP": 7613,
      "Bl": 7614,
      "Bless": 7615,
      "Betsy": 7616,
      "Coo": 7617,
      "Cool": 7618,
      "Copper": 7619,
      "Curious": 7620,
      "Doug": 7621,
      "Dave": 7622,
      "Dear": 7623,
      "Denise": 7624,
      "End": 7625,
      "For": 7626,
      "Fro": 7627,
      "Friends": 7628,
      "Follow": 7629,
      "Gl": 7630,
      "Got": 7631,
      "HE": 7632,
      "Ha": 7633,
      "Hide": 7634,
      "Hop": 7635,
      "Holly": 7636,
      "Hannah": 7637,
      "Imag": 7638,
      "Jana": 7639,
      "Jamie": 7640,
      "Kiss": 7641,
      "Kari": 7642,
      "Larry": 7643,
      "Mu": 7644,
      "Mine": 7645,
      "Maisy": 7646,
      "Minnie": 7647,
      "Maple": 7648,
      "Nick": 7649,
      "Nana": 7650,
      "Nemo": 7651,
      "Nutty": 7652,
      "NAP": 7653,
      "Oliver": 7654,
      "Outside": 7655,
      "Pit": 7656,
      "Put": 7657,
      "Pixie": 7658,
      "Poor": 7659,
      "Run": 7660,
      "Ruby": 7661,
      "Ribbit": 7662,
      "Sk": 7663,
      "Sl": 7664,
      "Some": 7665,
      "Surpr": 7666,
      "Silly": 7667,
      "Slowly": 7668,
      "Simon": 7669,
      "Sadly": 7670,
      "Te": 7671,
      "Ton": 7672,
      "THE": 7673,
      "Until": 7674,
      "Watch": 7675,
      "Zigzag": 7676,
      "aved": 7677,
      "away": 7678,
      "bu": 7679,
      "bird": 7680,
      "bably": 7681,
      "car": 7682,
      "cat": 7683,
      "cri": 7684,
      "come": 7685,
      "cter": 7686,
      "daughter": 7687,
      "dress": 7688,
      "dience": 7689,
      "drip": 7690,
      "ev": 7691,
      "eat": 7692,
      "eel": 7693,
      "emy": 7694,
      "eves": 7695,
      "earing": 7696,
      "eese": 7697,
      "evin": 7698,
      "fer": 7699,
      "found": 7700,
      "fall": 7701,
      "faction": 7702,
      "gr": 7703,
      "gain": 7704,
      "gum": 7705,
      "gized": 7706,
      "gery": 7707,
      "hind": 7708,
      "hap": 7709,
      "hand": 7710,
      "hins": 7711,
      "iam": 7712,
      "ium": 7713,
      "iking": 7714,
      "iens": 7715,
      "ials": 7716,
      "ler": 7717,
      "lig": 7718,
      "mas": 7719,
      "mely": 7720,
      "mower": 7721,
      "mmediately": 7722,
      "now": 7723,
      "ners": 7724,
      "oid": 7725,
      "oll": 7726,
      "oving": 7727,
      "pr": 7728,
      "ping": 7729,
      "pool": 7730,
      "please": 7731,
      "rum": 7732,
      "rings": 7733,
      "rist": 7734,
      "rons": 7735,
      "rating": 7736,
      "sion": 7737,
      "the": 7738,
      "tle": 7739,
      "that": 7740,
      "tock": 7741,
      "tress": 7742,
      "uke": 7743,
      "ulp": 7744,
      "used": 7745,
      "udience": 7746,
      "vo": 7747,
      "val": 7748,
      "vive": 7749,
      "vroom": 7750,
      "we": 7751,
      "whe": 7752,
      "what": 7753,
      "wise": 7754,
      "wort": 7755,
      "ypes": 7756,
      "Â¡": 7757,
      "Ëľ": 7758,
      "Ġ4": 7759,
      "ĠX": 7760,
      "Ġ?\"": 7761,
      "ĠOf": 7762,
      "Ġ...": 7763,
      "ĠQuick": 7764,
      "heese": 7765,
      "Ġted": 7766,
      "Ġtil": 7767,
      "Ġtant": 7768,
      "Ġtipped": 7769,
      "Ġtying": 7770,
      "Ġtiring": 7771,
      "Ġtugging": 7772,
      "Ġtypes": 7773,
      "Ġah": 7774,
      "Ġarom": 7775,
      "Ġaudience": 7776,
      "Ġsim": 7777,
      "Ġsite": 7778,
      "Ġsips": 7779,
      "Ġwoof": 7780,
      "ndles": 7781,
      "nddad": 7782,
      "eding": 7783,
      "incts": 7784,
      "Ġbam": 7785,
      "Ġbitten": 7786,
      "Ġbats": 7787,
      "Ġbiking": 7788,
      "Ġtopp": 7789,
      "Ġtoss": 7790,
      "Ġtouc": 7791,
      "Ġtossed": 7792,
      "Ġhind": 7793,
      "Ġhour": 7794,
      "Ġhund": 7795,
      "Ġwadd": 7796,
      "Ġwaking": 7797,
      "respect": 7798,
      "remely": 7799,
      "Ġfart": 7800,
      "Ġfade": 7801,
      "Ġfant": 7802,
      "Ġfate": 7803,
      "Ġfading": 7804,
      "its": 7805,
      "ition": 7806,
      "ouched": 7807,
      "Ġlam": 7808,
      "Ġlitt": 7809,
      "Ġlens": 7810,
      "Ġcore": 7811,
      "Ġcause": 7812,
      "Ġcoup": 7813,
      "eration": 7814,
      "erhap": 7815,
      "Ġheight": 7816,
      "Ġheels": 7817,
      "Ġdow": 7818,
      "Ġdart": 7819,
      "Ġdared": 7820,
      "Ġdip": 7821,
      "Ġdaring": 7822,
      "Ġdepend": 7823,
      "Ġdouble": 7824,
      "Ġdemon": 7825,
      "Ġmes": 7826,
      "Ġmun": 7827,
      "Ġmur": 7828,
      "Ġmak": 7829,
      "Ġmast": 7830,
      "Ġmac": 7831,
      "Ġmister": 7832,
      "Ġmower": 7833,
      "Ġmerry": 7834,
      "Ġpry": 7835,
      "Ġpec": 7836,
      "Ġpies": 7837,
      "Ġpail": 7838,
      "Ġpity": 7839,
      "Ġpancake": 7840,
      "Ġpouch": 7841,
      "Ġpounced": 7842,
      "Ġpipes": 7843,
      "Ġoily": 7844,
      "Ġodd": 7845,
      "ĠToys": 7846,
      "aries": 7847,
      "iser": 7848,
      "isbee": 7849,
      "Ġgears": 7850,
      "Ġgeese": 7851,
      "ilar": 7852,
      "ilst": 7853,
      "ilies": 7854,
      "ening": 7855,
      "ative": 7856,
      "Ġnine": 7857,
      "Ġnations": 7858,
      "Ġnuzz": 7859,
      "Ġhabit": 7860,
      "ĠSour": 7861,
      "ĠSund": 7862,
      "ĠSmo": 7863,
      "ĠSophia": 7864,
      "ĠSadly": 7865,
      "ĠSatur": 7866,
      "ĠSNAP": 7867,
      "aning": 7868,
      "anas": 7869,
      "imy": 7870,
      "immed": 7871,
      "immered": 7872,
      "oned": 7873,
      "orious": 7874,
      "ords": 7875,
      "order": 7876,
      "Ġitches": 7877,
      "lest": 7878,
      "lets": 7879,
      "lective": 7880,
      "leaning": 7881,
      "ĠHi": 7882,
      "ĠHig": 7883,
      "ĠHold": 7884,
      "ĠHappy": 7885,
      "etite": 7886,
      "irts": 7887,
      "othed": 7888,
      "otion": 7889,
      "Ġinev": 7890,
      "Ġelect": 7891,
      "cker": 7892,
      "ckless": 7893,
      "utter": 7894,
      "Ġunn": 7895,
      "ooking": 7896,
      "oops": 7897,
      "Ġyum": 7898,
      "Ġrings": 7899,
      "Ġrather": 7900,
      "Ġrumbled": 7901,
      "Ġrips": 7902,
      "Ġrotten": 7903,
      "Ġropes": 7904,
      "Ġrumbling": 7905,
      "Ġbeating": 7906,
      "Ġstate": 7907,
      "Ġstung": 7908,
      "Ġstiff": 7909,
      "Ġstumble": 7910,
      "amiliar": 7911,
      "ppies": 7912,
      "ppity": 7913,
      "Ġsoot": 7914,
      "Ġsoaking": 7915,
      "ĠImmediately": 7916,
      "Only": 7917,
      "Ġonions": 7918,
      "rible": 7919,
      "riages": 7920,
      "Ġplug": 7921,
      "adually": 7922,
      "ntown": 7923,
      "Ġups": 7924,
      "ĠLaser": 7925,
      "ĠLaughter": 7926,
      "ĠLots": 7927,
      "ĠLarry": 7928,
      "ĠLuckily": 7929,
      "ĠthatÃ¢": 7930,
      "stop": 7931,
      "stand": 7932,
      "stream": 7933,
      "stead": 7934,
      "elve": 7935,
      "eliness": 7936,
      "Ġweb": 7937,
      "Ġforce": 7938,
      "Ġformed": 7939,
      "Ġforced": 7940,
      "united": 7941,
      "ently": 7942,
      "ĠBo": 7943,
      "ĠBecause": 7944,
      "ĠBooks": 7945,
      "Ġmomma": 7946,
      "ching": 7947,
      "ounds": 7948,
      "Ġshimmering": 7949,
      "Ġshimmered": 7950,
      "allowed": 7951,
      "Ġsmeared": 7952,
      "ĠĊĠ": 7953,
      "Ġwhir": 7954,
      "Ġwhined": 7955,
      "Ġwhooping": 7956,
      "Ġwhilst": 7957,
      "seed": 7958,
      "Ġdock": 7959,
      "Ġdozed": 7960,
      "Ġrely": 7961,
      "Ġrefu": 7962,
      "Ġreas": 7963,
      "Ġrecess": 7964,
      "Ġrebu": 7965,
      "Ġreckless": 7966,
      "Ġreunited": 7967,
      "ality": 7968,
      "Ġaside": 7969,
      "ĠfriendÃ¢": 7970,
      "Ġloose": 7971,
      "racadabra": 7972,
      "Ġbond": 7973,
      "Ġboar": 7974,
      "Ġbodies": 7975,
      "Ġboiled": 7976,
      "Ġseven": 7977,
      "Ġjig": 7978,
      "Ġjars": 7979,
      "Ġjigg": 7980,
      "Ġgoats": 7981,
      "Ġgoals": 7982,
      "Ġouting": 7983,
      "Ġspills": 7984,
      "Ġexcept": 7985,
      "ĠAnt": 7986,
      "ĠAny": 7987,
      "ĠAgain": 7988,
      "artled": 7989,
      "ical": 7990,
      "icate": 7991,
      "icip": 7992,
      "iciest": 7993,
      "Ġcans": 7994,
      "Ġcany": 7995,
      "ighters": 7996,
      "âĤ¬Ëľ": 7997,
      "Ġcluck": 7998,
      "Ġclucked": 7999,
      "arefully": 8000,
      "Ġleather": 8001,
      "Ġfever": 8002,
      "Ġfeature": 8003,
      "Ġmango": 8004,
      "Ġaliens": 8005,
      "ĠboyÃ¢": 8006,
      "Ġbru": 8007,
      "Ġstartled": 8008,
      "ĠmeÃ¢": 8009,
      "Ġscow": 8010,
      "Ġscent": 8011,
      "Ġscored": 8012,
      "Ġsculp": 8013,
      "Ġbirdseed": 8014,
      "Ġsomebody": 8015,
      "ĠTomorrow": 8016,
      "ĠWow": 8017,
      "ĠWake": 8018,
      "ĠWell": 8019,
      "ĠWoof": 8020,
      "ĠWelcome": 8021,
      "ĠWorking": 8022,
      "Ġworn": 8023,
      "Ġfacing": 8024,
      "iece": 8025,
      "Ġcarriages": 8026,
      "ĠEating": 8027,
      "ĠEarth": 8028,
      "ĠExc": 8029,
      "Ġcond": 8030,
      "Ġcoal": 8031,
      "Ġcocked": 8032,
      "roll": 8033,
      "Ġlaunch": 8034,
      "ĠmuÃĥ": 8035,
      "Ġotherwise": 8036,
      "Ġflick": 8037,
      "Ġfluff": 8038,
      "Ġflips": 8039,
      "Ġnewfound": 8040,
      "estion": 8041,
      "quake": 8042,
      "quered": 8043,
      "Ġchill": 8044,
      "Ġchara": 8045,
      "Ġchilly": 8046,
      "Ġchunk": 8047,
      "Ġchugged": 8048,
      "Ġchugging": 8049,
      "Ġwhose": 8050,
      "Ġdecre": 8051,
      "ousers": 8052,
      "Ġgoods": 8053,
      "Ġgoodies": 8054,
      "Ġgoodness": 8055,
      "Ġparking": 8056,
      "Ġaband": 8057,
      "Ġbled": 8058,
      "Ġblur": 8059,
      "Ġblind": 8060,
      "Ġblob": 8061,
      "Ġblast": 8062,
      "Ġblink": 8063,
      "Ġblamed": 8064,
      "Ġblues": 8065,
      "Ġbloss": 8066,
      "Ġblades": 8067,
      "Ġblushed": 8068,
      "ĠDin": 8069,
      "ĠDanger": 8070,
      "ĠDespite": 8071,
      "Ġbully": 8072,
      "Ġbundles": 8073,
      "Ġcarefree": 8074,
      "Ġhoot": 8075,
      "aping": 8076,
      "apey": 8077,
      "Ġgrasp": 8078,
      "Ġgrazing": 8079,
      "Ġswat": 8080,
      "Ġswan": 8081,
      "Ġswell": 8082,
      "Ġswoll": 8083,
      "Ġswallowed": 8084,
      "Ġknees": 8085,
      "ĠFair": 8086,
      "ĠFaster": 8087,
      "ĠFighting": 8088,
      "Ġkeen": 8089,
      "Ġpondered": 8090,
      "isted": 8091,
      "istic": 8092,
      "Ġprefer": 8093,
      "Ġtrading": 8094,
      "Ġtrimmed": 8095,
      "Ġtrousers": 8096,
      "Ġpeac": 8097,
      "Ġpeered": 8098,
      "Ġskill": 8099,
      "Ġskies": 8100,
      "Ġsunk": 8101,
      "Ġtwice": 8102,
      "Ġtwelve": 8103,
      "ĠEverytime": 8104,
      "Ġpuppies": 8105,
      "osite": 8106,
      "Ġwaterfall": 8107,
      "venir": 8108,
      "Ġoverhead": 8109,
      "Ġovercome": 8110,
      "ucing": 8111,
      "ucts": 8112,
      "Ġenemy": 8113,
      "Ġfog": 8114,
      "ÅĵThe": 8115,
      "ÅĵOnce": 8116,
      "ÅĵHe": 8117,
      "ÅĵJack": 8118,
      "ÅĵJane": 8119,
      "ÅĵCome": 8120,
      "ÅĵPlease": 8121,
      "ÅĵThere": 8122,
      "ÅĵBe": 8123,
      "ÅĵHow": 8124,
      "ÅĵAre": 8125,
      "ÅĵYay": 8126,
      "ÅĵWait": 8127,
      "ÅĵTime": 8128,
      "Åĵhi": 8129,
      "Ġoperation": 8130,
      "Ġhandful": 8131,
      "Ġpickles": 8132,
      "Ġlongest": 8133,
      "Ġslimy": 8134,
      "hness": 8135,
      "Ġgardening": 8136,
      "ĠCould": 8137,
      "ĠCars": 8138,
      "ĠCaw": 8139,
      "ĠCuri": 8140,
      "ĠCheese": 8141,
      "ĠCarefully": 8142,
      "Ġevenings": 8143,
      "orth": 8144,
      "Ġcloses": 8145,
      "Ġcheers": 8146,
      "Ġcheated": 8147,
      "Ġcleare": 8148,
      "Ġgrumbled": 8149,
      "Ġgrouch": 8150,
      "Ġgradually": 8151,
      "Ġtearing": 8152,
      "LetÃ¢": 8153,
      "Whenever": 8154,
      "Though": 8155,
      "Those": 8156,
      "Ġhardest": 8157,
      "Ġglanc": 8158,
      "Ġgloss": 8159,
      "Ġunderground": 8160,
      "shop": 8161,
      "Ġsnort": 8162,
      "Ġsnakes": 8163,
      "Ġsnapping": 8164,
      "Ġfamilies": 8165,
      "Ġstaying": 8166,
      "Ġexplorer": 8167,
      "Ġfinishing": 8168,
      "Ġremoved": 8169,
      "Ġframes": 8170,
      "Ġfrisbee": 8171,
      "Ġwindier": 8172,
      "Ġstored": 8173,
      "Ġstopping": 8174,
      "beh": 8175,
      "beans": 8176,
      "ĠpeopleÃ¢": 8177,
      "Ġconvin": 8178,
      "Ġconfl": 8179,
      "Ġconstruction": 8180,
      "Ġconquered": 8181,
      "ĠPl": 8182,
      "ĠPretty": 8183,
      "Ġrocking": 8184,
      "Ġcleaner": 8185,
      "Ġbedtime": 8186,
      "ĠGem": 8187,
      "Ġbluebird": 8188,
      "Ġdiscou": 8189,
      "Ġruffled": 8190,
      "Ġworkshop": 8191
    },
    "merges": [
      [
        "h",
        "e"
      ],
      [
        "Ġ",
        "t"
      ],
      [
        "Ġ",
        "a"
      ],
      [
        "Ġ",
        "s"
      ],
      [
        "Ġ",
        "w"
      ],
      [
        "n",
        "d"
      ],
      [
        "Ġt",
        "he"
      ],
      [
        "e",
        "d"
      ],
      [
        "Ġa",
        "nd"
      ],
      [
        "i",
        "n"
      ],
      [
        "Ġ",
        "b"
      ],
      [
        "Ġt",
        "o"
      ],
      [
        "Ġ",
        "h"
      ],
      [
        "Ġw",
        "a"
      ],
      [
        "r",
        "e"
      ],
      [
        "Ġ",
        "f"
      ],
      [
        "i",
        "t"
      ],
      [
        "o",
        "u"
      ],
      [
        "Ġ",
        "l"
      ],
      [
        "Ġ",
        "c"
      ],
      [
        "e",
        "r"
      ],
      [
        "Ġ",
        "he"
      ],
      [
        "Ġ",
        "d"
      ],
      [
        "Ġwa",
        "s"
      ],
      [
        "Ġ",
        "m"
      ],
      [
        "Ġ",
        "p"
      ],
      [
        "Ġ",
        "o"
      ],
      [
        "o",
        "m"
      ],
      [
        "Ġ",
        "T"
      ],
      [
        "a",
        "y"
      ],
      [
        "in",
        "g"
      ],
      [
        "a",
        "r"
      ],
      [
        "i",
        "s"
      ],
      [
        "Ġ",
        "g"
      ],
      [
        "i",
        "d"
      ],
      [
        "i",
        "l"
      ],
      [
        "e",
        "n"
      ],
      [
        "a",
        "t"
      ],
      [
        "Ġs",
        "a"
      ],
      [
        "Ġ",
        "n"
      ],
      [
        "Ġh",
        "a"
      ],
      [
        "Ġ",
        "S"
      ],
      [
        "a",
        "n"
      ],
      [
        "i",
        "m"
      ],
      [
        "ĠT",
        "he"
      ],
      [
        "o",
        "n"
      ],
      [
        "o",
        "r"
      ],
      [
        "l",
        "l"
      ],
      [
        "Ġ",
        "it"
      ],
      [
        "Ġt",
        "h"
      ],
      [
        "l",
        "e"
      ],
      [
        "Ġ",
        "H"
      ],
      [
        "e",
        "t"
      ],
      [
        "Ġhe",
        "r"
      ],
      [
        "i",
        "r"
      ],
      [
        "ĠH",
        "e"
      ],
      [
        "o",
        "t"
      ],
      [
        "ĠS",
        "he"
      ],
      [
        "v",
        "er"
      ],
      [
        "e",
        "s"
      ],
      [
        "Ġ",
        "in"
      ],
      [
        "o",
        "w"
      ],
      [
        "Ġ",
        "e"
      ],
      [
        "c",
        "k"
      ],
      [
        "u",
        "t"
      ],
      [
        "Ġ",
        "u"
      ],
      [
        "l",
        "d"
      ],
      [
        "Ġsa",
        "id"
      ],
      [
        "o",
        "o"
      ],
      [
        "Ġ",
        "y"
      ],
      [
        "i",
        "g"
      ],
      [
        "Ġ",
        "r"
      ],
      [
        "Ġ",
        "\""
      ],
      [
        "Ġb",
        "e"
      ],
      [
        "Ġs",
        "t"
      ],
      [
        "Ġs",
        "he"
      ],
      [
        "c",
        "e"
      ],
      [
        "a",
        "m"
      ],
      [
        "ĠThe",
        "y"
      ],
      [
        "p",
        "p"
      ],
      [
        "it",
        "h"
      ],
      [
        "Ġw",
        "ith"
      ],
      [
        "k",
        "e"
      ],
      [
        "Ġs",
        "o"
      ],
      [
        "Ġ",
        "I"
      ],
      [
        "O",
        "n"
      ],
      [
        "v",
        "e"
      ],
      [
        "k",
        "ed"
      ],
      [
        "Ġo",
        "f"
      ],
      [
        "Ġo",
        "n"
      ],
      [
        "Ġh",
        "is"
      ],
      [
        "r",
        "i"
      ],
      [
        "Ġp",
        "l"
      ],
      [
        "ver",
        "y"
      ],
      [
        "il",
        "y"
      ],
      [
        "a",
        "d"
      ],
      [
        "Ġy",
        "ou"
      ],
      [
        "n",
        "t"
      ],
      [
        "Ġd",
        "ay"
      ],
      [
        "Ġu",
        "p"
      ],
      [
        "Ġ",
        "L"
      ],
      [
        "Ġth",
        "at"
      ],
      [
        "Ġha",
        "d"
      ],
      [
        "s",
        "t"
      ],
      [
        "Ġpl",
        "ay"
      ],
      [
        "e",
        "l"
      ],
      [
        "T",
        "he"
      ],
      [
        "Ġw",
        "e"
      ],
      [
        "Ġf",
        "or"
      ],
      [
        "Ġthe",
        "y"
      ],
      [
        "ou",
        "ld"
      ],
      [
        "u",
        "n"
      ],
      [
        "it",
        "t"
      ],
      [
        "en",
        "t"
      ],
      [
        "Ġ",
        "B"
      ],
      [
        "'",
        "s"
      ],
      [
        "Ġm",
        "om"
      ],
      [
        "Ġl",
        "i"
      ],
      [
        "m",
        "y"
      ],
      [
        "l",
        "y"
      ],
      [
        "c",
        "h"
      ],
      [
        "ou",
        "t"
      ],
      [
        "Ġha",
        "pp"
      ],
      [
        "he",
        "r"
      ],
      [
        "ou",
        "nd"
      ],
      [
        "Ġs",
        "h"
      ],
      [
        "itt",
        "le"
      ],
      [
        "a",
        "ll"
      ],
      [
        "Ġwa",
        "nt"
      ],
      [
        "Ġs",
        "m"
      ],
      [
        "Ġl",
        "ittle"
      ],
      [
        "ĠL",
        "ily"
      ],
      [
        "im",
        "e"
      ],
      [
        "om",
        "e"
      ],
      [
        "e",
        "nd"
      ],
      [
        "Ġthe",
        "re"
      ],
      [
        "Ġ",
        "very"
      ],
      [
        "Ġ",
        "Ċ"
      ],
      [
        "Ġt",
        "ime"
      ],
      [
        "Ġw",
        "h"
      ],
      [
        "s",
        "e"
      ],
      [
        "h",
        "t"
      ],
      [
        "Ġ",
        "k"
      ],
      [
        "a",
        "ck"
      ],
      [
        "Ġd",
        "o"
      ],
      [
        "Ġ",
        "re"
      ],
      [
        "Ġn",
        "e"
      ],
      [
        "Ġb",
        "ig"
      ],
      [
        "a",
        "l"
      ],
      [
        "Ġhapp",
        "y"
      ],
      [
        "Ġn",
        "ot"
      ],
      [
        "Ġa",
        "s"
      ],
      [
        "ri",
        "end"
      ],
      [
        "Ġf",
        "riend"
      ],
      [
        "Ġ",
        "M"
      ],
      [
        "Ġa",
        "n"
      ],
      [
        "Ġb",
        "ut"
      ],
      [
        "Ġsa",
        "w"
      ],
      [
        "ĠI",
        "t"
      ],
      [
        "Ġl",
        "oo"
      ],
      [
        "r",
        "a"
      ],
      [
        "u",
        "g"
      ],
      [
        "Ġ",
        "is"
      ],
      [
        "'",
        "t"
      ],
      [
        "!",
        "\""
      ],
      [
        "r",
        "y"
      ],
      [
        "On",
        "e"
      ],
      [
        ".",
        "\""
      ],
      [
        "On",
        "ce"
      ],
      [
        "a",
        "ke"
      ],
      [
        "t",
        "er"
      ],
      [
        "o",
        "re"
      ],
      [
        "id",
        "e"
      ],
      [
        "e",
        "c"
      ],
      [
        "v",
        "ed"
      ],
      [
        "Ġwe",
        "re"
      ],
      [
        "Ġb",
        "o"
      ],
      [
        "ir",
        "l"
      ],
      [
        "Ġg",
        "irl"
      ],
      [
        "Ġh",
        "im"
      ],
      [
        "Ġ",
        "J"
      ],
      [
        "Ġs",
        "e"
      ],
      [
        "Ġl",
        "o"
      ],
      [
        "Ġ",
        "j"
      ],
      [
        "Ġto",
        "o"
      ],
      [
        "Ġup",
        "on"
      ],
      [
        "Ġsm",
        "il"
      ],
      [
        "Ġg",
        "o"
      ],
      [
        "Ġ",
        "out"
      ],
      [
        "ar",
        "d"
      ],
      [
        "Ġwant",
        "ed"
      ],
      [
        "Ġs",
        "p"
      ],
      [
        "f",
        "u"
      ],
      [
        "Ġe",
        "x"
      ],
      [
        "ĠT",
        "im"
      ],
      [
        "il",
        "l"
      ],
      [
        "Ġa",
        "t"
      ],
      [
        "u",
        "r"
      ],
      [
        "he",
        "n"
      ],
      [
        "Ġc",
        "ould"
      ],
      [
        "a",
        "in"
      ],
      [
        "i",
        "nd"
      ],
      [
        "w",
        "ay"
      ],
      [
        "r",
        "ound"
      ],
      [
        "Ġ",
        "A"
      ],
      [
        "Ġthe",
        "m"
      ],
      [
        "h",
        "ing"
      ],
      [
        "Ġa",
        "re"
      ],
      [
        "he",
        "d"
      ],
      [
        "Ġw",
        "ent"
      ],
      [
        "ar",
        "t"
      ],
      [
        "i",
        "c"
      ],
      [
        "Ġd",
        "id"
      ],
      [
        "Ġthe",
        "ir"
      ],
      [
        "fu",
        "l"
      ],
      [
        "Ġa",
        "ll"
      ],
      [
        "Ġha",
        "ve"
      ],
      [
        "r",
        "om"
      ],
      [
        "on",
        "e"
      ],
      [
        "Ġc",
        "an"
      ],
      [
        "u",
        "m"
      ],
      [
        "Ġfriend",
        "s"
      ],
      [
        "oo",
        "d"
      ],
      [
        "l",
        "p"
      ],
      [
        "ĠB",
        "en"
      ],
      [
        "ig",
        "ht"
      ],
      [
        "Ġn",
        "am"
      ],
      [
        "?",
        "\""
      ],
      [
        "Ġhe",
        "lp"
      ],
      [
        "Ġsmil",
        "ed"
      ],
      [
        "Ã",
        "¢"
      ],
      [
        "â",
        "Ĥ"
      ],
      [
        "âĤ",
        "¬"
      ],
      [
        "Ġb",
        "ack"
      ],
      [
        "Ġk",
        "n"
      ],
      [
        "Ġf",
        "un"
      ],
      [
        "Ġc",
        "l"
      ],
      [
        "ou",
        "g"
      ],
      [
        "Ġa",
        "round"
      ],
      [
        "ar",
        "k"
      ],
      [
        "a",
        "re"
      ],
      [
        "Ġl",
        "e"
      ],
      [
        "om",
        "et"
      ],
      [
        "Ġloo",
        "ked"
      ],
      [
        "Ġn",
        "o"
      ],
      [
        "Ġas",
        "ked"
      ],
      [
        "el",
        "t"
      ],
      [
        "o",
        "p"
      ],
      [
        "Ġf",
        "e"
      ],
      [
        "Ġm",
        "an"
      ],
      [
        "Ġf",
        "elt"
      ],
      [
        "Ġnam",
        "ed"
      ],
      [
        "s",
        "ide"
      ],
      [
        "Y",
        "ou"
      ],
      [
        "Ġb",
        "ir"
      ],
      [
        "Ġli",
        "ke"
      ],
      [
        "u",
        "re"
      ],
      [
        "Ġa",
        "l"
      ],
      [
        "Ġbo",
        "y"
      ],
      [
        "i",
        "ce"
      ],
      [
        "g",
        "et"
      ],
      [
        "i",
        "ck"
      ],
      [
        "Ġs",
        "ay"
      ],
      [
        "Ġ",
        "One"
      ],
      [
        "am",
        "e"
      ],
      [
        "Ġlo",
        "ved"
      ],
      [
        "Ġb",
        "r"
      ],
      [
        "Ġs",
        "omet"
      ],
      [
        "Ġst",
        "art"
      ],
      [
        "on",
        "g"
      ],
      [
        "Ġse",
        "e"
      ],
      [
        "Ġto",
        "y"
      ],
      [
        "Ġm",
        "e"
      ],
      [
        "Ġw",
        "ould"
      ],
      [
        "Ġs",
        "c"
      ],
      [
        "Ġr",
        "o"
      ],
      [
        "Ġbir",
        "d"
      ],
      [
        "d",
        "d"
      ],
      [
        "Ġs",
        "ome"
      ],
      [
        "ĠT",
        "om"
      ],
      [
        "a",
        "s"
      ],
      [
        ",",
        "\""
      ],
      [
        "it",
        "ed"
      ],
      [
        "re",
        "e"
      ],
      [
        "Ġa",
        "g"
      ],
      [
        "Ġ",
        "W"
      ],
      [
        "get",
        "her"
      ],
      [
        "ĠTim",
        "my"
      ],
      [
        "Ġw",
        "or"
      ],
      [
        "Ġex",
        "c"
      ],
      [
        "ad",
        "e"
      ],
      [
        "Ġf",
        "a"
      ],
      [
        "Ġsomet",
        "hing"
      ],
      [
        "k",
        "ing"
      ],
      [
        "Ġstart",
        "ed"
      ],
      [
        "a",
        "g"
      ],
      [
        "Ġa",
        "way"
      ],
      [
        "ing",
        "s"
      ],
      [
        "Ġto",
        "gether"
      ],
      [
        "ow",
        "n"
      ],
      [
        "Ġwh",
        "at"
      ],
      [
        "Ġr",
        "an"
      ],
      [
        "pp",
        "ed"
      ],
      [
        "ou",
        "d"
      ],
      [
        "a",
        "b"
      ],
      [
        "i",
        "e"
      ],
      [
        "e",
        "ll"
      ],
      [
        "Ġm",
        "ake"
      ],
      [
        "Ġc",
        "ar"
      ],
      [
        "Ġthe",
        "n"
      ],
      [
        "Ġm",
        "ade"
      ],
      [
        "h",
        "at"
      ],
      [
        "i",
        "f"
      ],
      [
        "ar",
        "ed"
      ],
      [
        "Ġag",
        "ain"
      ],
      [
        "Ġ",
        "E"
      ],
      [
        "Ġc",
        "o"
      ],
      [
        "r",
        "o"
      ],
      [
        "Ġl",
        "a"
      ],
      [
        "Ġexc",
        "ited"
      ],
      [
        "t",
        "her"
      ],
      [
        "Ġm",
        "u"
      ],
      [
        "Ġh",
        "ome"
      ],
      [
        "Ġo",
        "ther"
      ],
      [
        "Ġf",
        "rom"
      ],
      [
        "Ġf",
        "l"
      ],
      [
        "e",
        "p"
      ],
      [
        "s",
        "s"
      ],
      [
        "Ġp",
        "ut"
      ],
      [
        "ĠB",
        "ut"
      ],
      [
        "Ġne",
        "w"
      ],
      [
        "es",
        "t"
      ],
      [
        "Ġw",
        "hen"
      ],
      [
        "p",
        "l"
      ],
      [
        "Ġsa",
        "d"
      ],
      [
        "oug",
        "ht"
      ],
      [
        "Ġf",
        "ound"
      ],
      [
        "Ġh",
        "ug"
      ],
      [
        "Ġg",
        "et"
      ],
      [
        "q",
        "u"
      ],
      [
        "all",
        "y"
      ],
      [
        "Ġc",
        "h"
      ],
      [
        "Ġwh",
        "o"
      ],
      [
        "Ġd",
        "ec"
      ],
      [
        "ou",
        "s"
      ],
      [
        "Ġg",
        "ood"
      ],
      [
        "Ġp",
        "ark"
      ],
      [
        "Ġsay",
        "s"
      ],
      [
        "Ġa",
        "b"
      ],
      [
        "Ġ",
        "You"
      ],
      [
        "Ġplay",
        "ing"
      ],
      [
        "Ġwa",
        "l"
      ],
      [
        "Ġe",
        "very"
      ],
      [
        "L",
        "ily"
      ],
      [
        "a",
        "ch"
      ],
      [
        "Ġ",
        "v"
      ],
      [
        "Ġb",
        "l"
      ],
      [
        "Ġp",
        "r"
      ],
      [
        "Ġth",
        "ings"
      ],
      [
        "ri",
        "ed"
      ],
      [
        "Ġg",
        "ot"
      ],
      [
        "id",
        "ed"
      ],
      [
        "a",
        "ve"
      ],
      [
        "Ġ",
        "D"
      ],
      [
        "oo",
        "k"
      ],
      [
        "Ġdec",
        "ided"
      ],
      [
        "Ġth",
        "an"
      ],
      [
        "Ġb",
        "u"
      ],
      [
        "Ġon",
        "e"
      ],
      [
        "u",
        "st"
      ],
      [
        "Ġli",
        "ked"
      ],
      [
        "Ġfe",
        "el"
      ],
      [
        "u",
        "dd"
      ],
      [
        "nd",
        "er"
      ],
      [
        "ou",
        "se"
      ],
      [
        "Ġc",
        "ame"
      ],
      [
        "Ġo",
        "ld"
      ],
      [
        "Ġd",
        "ad"
      ],
      [
        "ar",
        "a"
      ],
      [
        "Ġd",
        "own"
      ],
      [
        "u",
        "e"
      ],
      [
        "Ġbe",
        "c"
      ],
      [
        "Ġf",
        "ind"
      ],
      [
        "it",
        "e"
      ],
      [
        "Ġc",
        "are"
      ],
      [
        "ou",
        "r"
      ],
      [
        "Ġloo",
        "k"
      ],
      [
        "Ġl",
        "ot"
      ],
      [
        "Ġt",
        "ree"
      ],
      [
        "Ġh",
        "o"
      ],
      [
        "Ġdo",
        "g"
      ],
      [
        "Ġsc",
        "ared"
      ],
      [
        "Ġyou",
        "r"
      ],
      [
        "Ġth",
        "ought"
      ],
      [
        "n",
        "n"
      ],
      [
        "Ġm",
        "y"
      ],
      [
        "udd",
        "en"
      ],
      [
        "Ġt",
        "ake"
      ],
      [
        "Ġab",
        "out"
      ],
      [
        "a",
        "p"
      ],
      [
        "Ġtoo",
        "k"
      ],
      [
        "Ġg",
        "ra"
      ],
      [
        "ec",
        "i"
      ],
      [
        "Ġdid",
        "n"
      ],
      [
        "Ġin",
        "t"
      ],
      [
        "c",
        "hed"
      ],
      [
        "Ġs",
        "w"
      ],
      [
        "way",
        "s"
      ],
      [
        "udden",
        "ly"
      ],
      [
        "Ġla",
        "ug"
      ],
      [
        "u",
        "ck"
      ],
      [
        "is",
        "e"
      ],
      [
        "Ġkn",
        "e"
      ],
      [
        "ĠM",
        "om"
      ],
      [
        "Ġm",
        "ore"
      ],
      [
        "Ġ",
        "F"
      ],
      [
        "Ġal",
        "ways"
      ],
      [
        "Ġ",
        "ke"
      ],
      [
        "en",
        "ed"
      ],
      [
        "n",
        "y"
      ],
      [
        "Ġp",
        "o"
      ],
      [
        "es",
        "s"
      ],
      [
        "eci",
        "al"
      ],
      [
        "Ġsp",
        "ecial"
      ],
      [
        "The",
        "y"
      ],
      [
        "is",
        "t"
      ],
      [
        "er",
        "s"
      ],
      [
        "n",
        "ed"
      ],
      [
        "g",
        "ed"
      ],
      [
        "Ġout",
        "side"
      ],
      [
        "f",
        "e"
      ],
      [
        "Ġc",
        "at"
      ],
      [
        "Ġp",
        "re"
      ],
      [
        "Ġtoy",
        "s"
      ],
      [
        "nn",
        "a"
      ],
      [
        "an",
        "t"
      ],
      [
        "Ġw",
        "ill"
      ],
      [
        "Ġt",
        "r"
      ],
      [
        "ll",
        "y"
      ],
      [
        "f",
        "ter"
      ],
      [
        "Ġkn",
        "ow"
      ],
      [
        "Ġp",
        "e"
      ],
      [
        "Ġs",
        "k"
      ],
      [
        "Ġb",
        "all"
      ],
      [
        "o",
        "b"
      ],
      [
        "Ġs",
        "un"
      ],
      [
        "Ġm",
        "o"
      ],
      [
        "Ġle",
        "ar"
      ],
      [
        "a",
        "x"
      ],
      [
        "Ġmu",
        "ch"
      ],
      [
        "Ġt",
        "w"
      ],
      [
        "Ġan",
        "y"
      ],
      [
        "ĠE",
        "very"
      ],
      [
        "Ġkne",
        "w"
      ],
      [
        "a",
        "k"
      ],
      [
        "is",
        "h"
      ],
      [
        "ĠJ",
        "ack"
      ],
      [
        "Ġh",
        "ow"
      ],
      [
        "m",
        "a"
      ],
      [
        "Ġmom",
        "my"
      ],
      [
        "Ġex",
        "pl"
      ],
      [
        "Ġp",
        "u"
      ],
      [
        "Ġcould",
        "n"
      ],
      [
        "B",
        "ut"
      ],
      [
        "i",
        "ve"
      ],
      [
        "Ġint",
        "o"
      ],
      [
        "o",
        "s"
      ],
      [
        "Ġwa",
        "ter"
      ],
      [
        "re",
        "at"
      ],
      [
        "Ġr",
        "un"
      ],
      [
        "a",
        "u"
      ],
      [
        "v",
        "en"
      ],
      [
        "Ġo",
        "ver"
      ],
      [
        "u",
        "c"
      ],
      [
        "Ġ",
        "en"
      ],
      [
        "ĠS",
        "am"
      ],
      [
        "Ġth",
        "is"
      ],
      [
        "ĠJ",
        "o"
      ],
      [
        "Ġ",
        "qu"
      ],
      [
        "Ġf",
        "o"
      ],
      [
        "Ġsh",
        "ow"
      ],
      [
        "a",
        "nd"
      ],
      [
        "he",
        "re"
      ],
      [
        "Ġst",
        "r"
      ],
      [
        "an",
        "g"
      ],
      [
        "t",
        "y"
      ],
      [
        "Å",
        "ĵ"
      ],
      [
        "Ġs",
        "or"
      ],
      [
        "Ġpr",
        "oud"
      ],
      [
        "a",
        "st"
      ],
      [
        "an",
        "k"
      ],
      [
        "Ġne",
        "ver"
      ],
      [
        "ot",
        "h"
      ],
      [
        "Ġro",
        "om"
      ],
      [
        "b",
        "b"
      ],
      [
        "Ġg",
        "ave"
      ],
      [
        "Ġin",
        "side"
      ],
      [
        "Ġ",
        "if"
      ],
      [
        "Ġhe",
        "ard"
      ],
      [
        "a",
        "ce"
      ],
      [
        "Ġsm",
        "all"
      ],
      [
        "Ġo",
        "p"
      ],
      [
        "Ġh",
        "ouse"
      ],
      [
        "v",
        "ent"
      ],
      [
        "Ġto",
        "ld"
      ],
      [
        "Ġj",
        "ust"
      ],
      [
        "in",
        "k"
      ],
      [
        "ĠS",
        "ara"
      ],
      [
        "Ġo",
        "r"
      ],
      [
        "au",
        "se"
      ],
      [
        "um",
        "p"
      ],
      [
        "v",
        "ing"
      ],
      [
        "Ġc",
        "all"
      ],
      [
        "Ġplay",
        "ed"
      ],
      [
        "Ġa",
        "d"
      ],
      [
        "n",
        "ing"
      ],
      [
        "Ġha",
        "nd"
      ],
      [
        "ĠS",
        "o"
      ],
      [
        "oug",
        "h"
      ],
      [
        "Ġwa",
        "t"
      ],
      [
[...]
